node {
  name: "keras_learning_phase/input"
  op: "Const"
  attr {
    key: "dtype"
    value {
      type: DT_BOOL
    }
  }
  attr {
    key: "value"
    value {
      tensor {
        dtype: DT_BOOL
        tensor_shape {
        }
        bool_val: false
      }
    }
  }
}
node {
  name: "keras_learning_phase"
  op: "PlaceholderWithDefault"
  input: "keras_learning_phase/input"
  attr {
    key: "dtype"
    value {
      type: DT_BOOL
    }
  }
  attr {
    key: "shape"
    value {
      shape {
      }
    }
  }
}
node {
  name: "LSTM_1_input"
  op: "Placeholder"
  attr {
    key: "dtype"
    value {
      type: DT_FLOAT
    }
  }
  attr {
    key: "shape"
    value {
      shape {
        dim {
          size: -1
        }
        dim {
          size: 100
        }
        dim {
          size: 4
        }
      }
    }
  }
}
node {
  name: "LSTM_1/kernel/initial_value"
  op: "Const"
  attr {
    key: "dtype"
    value {
      type: DT_FLOAT
    }
  }
  attr {
    key: "value"
    value {
      tensor {
        dtype: DT_FLOAT
        tensor_shape {
          dim {
            size: 4
          }
          dim {
            size: 256
          }
        }
        tensor_content: "\352!\244<\023\332d9\376\233D\275\365L`\275\231\001\240\275\020\317\010\275\225\0020<M\3022\275\312\332\241\274\324D\274=\353\360l<\362\374\364\274Bg\324<A\327\000\275P\251\277=\335\264\223\275\230\245\247\275U9\023=2ps\275j/\037=\255\203\020\275\342\005\320\275U\242\342<W\320\020\276CA\344=\344\362\214<\333~\313\273k%\304<\331Z\312\275\213#\335;NCX\275\274\350\256=\327U\026>\365\252\216\275\367\361\267\275\243\311\307\275\365\347\257\273\023\0237=p^\335<a\211\360\274!K\221=\274\246\375=\r\344\301<3\244\303\275B\004O\275\031\277$<i\314\255\275\000[\275::)\033\275ln\325\275\036\350\325<\262,\261\274\tw1={\020n;\037\\\036=E\310Z\274\247\375\"=\337s\342=mq <\321\357\365\273\361\307\214=\354\223\331\275\234\356\313<\264\231q=\022Ah=\363\377\203=j\2558=\321\215\277=\202\236\212<\255b\205=)q.\275\304\234\322=\347\235\356=\206QA=<E\016\275C\004\310<\337\202\207\274\345\243R=\"\377\021\275|\361T=3CQ=r\213\'\274\021\316S\273\227$P\275\310:p=ao\212=\310\363\213\271\267 \016<Mi\246\275x7m=q\221%\275\242u\344\275y\313\007\276@\020_\275>Z\240\275\372z\237<[\330\254=\017\210\213\274\034\214_=3\010\272;\260\352\310=\354\027\205;\261\216$=\004\032G=O\213!\275;)1\273\026\002\214\275\224\231\220\275\204\177\217=\032~\261\272\2563\007\275\t\2269\275 5\237=\020\366\344\274\003\007\004<\243\351\245;i\330]=\306\323T\275\222\302\257\275<\236\352\274\312\323\220<\235oE<A\301\326\274#>\300<9dH=6\024L=C\341\031=\346\006W\275\360\246\002<g\361\210\275d\374r<\272\360\321\272\373\016\227\275\240~\202<D\362\330=p\2377\275\003M\347<\321}\004> \014?=\206x\014\276\366\234\201=\261\021\356\274@R\016=z\312\014\276\333\031d<\221=G=^\246\206\274w~0\274\t\370\314:E\2741\275\002\313H;(\304\013\274\021\213!\276\265}?<CI\213=\303h\177=rk\323=\n\237\016\276\'\"\260\274\237m;=U{_\274\3748\200\275\324b\251=<\352\306=\261\376\234\275\233\355\231\273-\"r\274\254 \332\275)\\\257\275\'$\014\275\275\314&=\245a8\275\206q\037<\'9\220\274n\245\235\275@\350\214=\374\232\275\274\270\031\210<\265\220&=\271|t=3\247\232\275Mv\236\275\263 \247=\\\256\347\275\'\373\337\275!\371*<\371^\277\275\351;>=\023\221\247=\3311~=<-\330\275\345\232a\275\232)\303=.Q\177\275\363\230\212=\242\200\037=\252A^=\302\216\367=\343\365\001\276\'\026\226\275LT\301=;\230I\275\205\303\203\275FwB=O\326\271\275\340\244\343\275u\377\006\276`V\215\275_\010\214<p\216,<\367h\253=h(\007=\025\014<<]\337g\275y\221<\275?3\033\274\322W\234<\032~s\274}\356]\275\210\344\021\275J\336\231\275\347ke<|\034\006=\306\246\235\275REt;\243#z=\317\372\203\275(\241\034<\177B\224=l\340\255<4\345\364<\005\235T<\247l\207\275\364\237\220<\255R\261\275\326\005\340\2747\272\030\274\2034\214\273\250_\211<\362\303\036>\r\267O\275\330\211=\275\377]\220\275/)\271\275\265Dn\27575N=\215\374\\<\004\034\226<\272\275\245\274\235\3636\274j\\\216\275E\356\376\274\341[\217\275\331\211x\274\270\337\270\274&\373\326\274\034\n==\266R\374\275\325\217\274=\335X\310\275\262\317\357=\250P\216;\031{9\275>\251\272\275@\374h=6w\352\274\234\004\264=\360\231\257\275\234H\326=\016\005`=\247\372~\275h-\207\275Zj\\<\271;$=\263\204u=D\343\206\274cd\307\275\026\320\224=\315\222\322=\022\277\014>\200\031\306\275<C\217;1\214\243\275Y\333\211\275\247\334\262<r0|=\332\335x<iaF\276\327|7\2743\024\240\275B)\250<?\016\351=\372\"\302\274\211?\277\273N\205\324\275\251\261m\275\274\245;\275}<\013>,\237F\273FC\373<g\272s\275\013A\201<8\317\234\275r\235c=<SB\2754\326\321\274Ueu=\237\\\327\274\247\204?\275_ l=\214\277\377\274\256A\302\275\035\037\203\275\250\274\036\274\363(\351\275m\212:<\352\206\002=\250\202@\274\020\300\301=\210>8=\355\357v\275\tX\361<\026*\\=5#\306;\366>\004\275\354\254\004\275B\262\n\275G\323\017>g!x\275\025\230Q\275\337\227\342<d#\t\274\271\243\367\275\365\350\361;\2541\221=n\355\262\274\255\245\240=\343K\235\275a\351\212\275\262`C\275\236\2021\274\010\376\254\275\223\037x\275\203p\304=-\002\361\274\2734\302=pO\235\275\234\374\023\275\316`\376<\340yb==\213\326=,\260\335\275*\374\320\274}\034\210\275\212]\223=P\261j\275!\375\003\276H\004\311<L\320\t<\266\355+\275d\376\3339\2312\236\275U\002-\274[i\275\275\255 #=\273\217\004=\247\222\001\275\376n\014=\334\235\021=\177;\221\274\247\213\213\275\275TY<\346\331Y=N\340\343\274\247\225\201\275\"z\027<\200|$<\204\022\272<\226\016\255\274\204\355f\270\263\327\222=\327vJ\272u5\233\274V\177\017\275\200\331\362\274\274\256\343\274$\350 \275\2178\n\275\235\t\223\273\3721\265\273\267/<=-\360W=\337\267\230\275\021MR=\240pD=@\0226=\324\232\020=5\341Y\275\245\313W=H\224l\275\306\265\360<r\261\230\275\r\017\206\275\213\322@=\202w\333<\373W\204\274Zi[=\355b\247\275H\260d\275M?\203\275\2768\354<f\2034=\354\315\364\273l\206!=G\237\203=\267\273\305\274\257\272\210=_|\352<\253\253\247\275\327R\364=\236y\251\274lA\235=\203\347D\275\240U\021\276\373\022D=\343L\237=\366\350\321;D\020\t\274\366/M= A\362\275\212oM\275\027\000\260<GG\243<m\230T=\010\331i\2748gG<M1J<C\225f\275g\312\377\275X8\337=\215 \261< \272Y<\\\347\325\273\236K?\275\224q\205\273\225\242\277\275|\264\003=Kc\376\275\332\317\370<\033E/\274u\356%\274G\253\324<\033FG=\360\226\245\274S\000==\320\026K\275b\377\004\276\371\323\177=\035\005\226\274sxt=r\234\350\274\301\363\330\275\371\254@=\300E\226<(=\001=\213\232\264\275\342>q:\307b\224;\211\223\242<\244$\001\275!-?;wO\305\275\370\227\301\275pf\"\275\016aL;u\2619\275\213\353\357=%\0303\275l\316\251=H\357\226=\275R^=A\'e=g\333)\275\034\225\246=\007\000H\273\2654Q=\320\250\276\273\036}\t\276~G\235\275\336?d<\217\331#<\364]M<P\255$>\265\355\252:\201\266\321<\311\231\213\274\366\327\300\275\033\377\227\275\370S\177\275hJ;=\356E\232\275\350Jp;\367\311\202\275*\334\226\275\005~\250=\246*\235=\273\243d\274\230\367h\274\024\226\235\272\245~*=\331<\275;J\233\266\275\365j\316\274\3650-=\335\236\020\275,f\030\275\\J\r=Uw\241\274\027\236\350\274D\014\005<\022\266\250:\221\306\004>\351\227\227\272\353\236\003=\303<P;\231t\324;u\224c=V\261\234=\035 \271=\220\347\010\275&J\201\275\"\202\344\273\001\027\200\275T\2677\275m\337;=h-\373;\035pa\274\270?>;\227\3645\275&.%<\364\277\334=5=*=w8\016=\310\371\361\275\376\361\345\271@\217\277=\246\210\315\272\031\376\021=!k.=\231\360\364=\362\357V\275hgK=\315X\364\274m\016y=gf\n\275\323\010k\275\255\022\005\276\366(\240=\372\033}=8Rb=~\216\230\274(\252\257\274W\272\034<i\202*\2752\330\341\274Q:\001\276\240\n}\275\300X\204\275F\260\236=\274\3743>\033i\034<\014\335\276\275G\332\201=b\376\362\272\320\354\354\275!T\227=\364\350-\274\336%\000=\257\202\021\276\2053\244=\312\004\014=\332\031\275=\266R\253\275)V\203=_2\227\274\375\344%\275\216\317c\275)\3021=\314\313\032>\335G\036=)8\230=n7\203\275YO\201\275(\330x\2755w\002\275)\205\335<#\026(=\260+\366\274\233\241h=\000wM\276S{\213=m\322]\274\225\214\234:\003\276#\275\326\351\014=\n\n\266\273\221\021&<p\014\245\274)\026;=\007\340\337=\215\330\211=X\201\000\276\330\324\241\275lI\342<\316T\300=\353\204\003\275t\033\017\275\324\346\344=1\275\r>\37116;\\a\357<\315d\024\276 \243\325\274\315\332Z\2751\215F\274\001\270\351\274\351\222\231\271\342\330\265=*\362\341<\213\305\223\273Q\023!=\212\365\311;\346\356\227\2750\313\305\274\374l\016<\215\254\237=\231qF\275\036\236\243<`\365\256\273)\253w=6\320\261\274\003\215&=_B\255=\377\2735\275\346\351\303\275\307zk=Cp\307\275\no\360<\217%\205=/\'\227=!w8\275\377.\277\274$\207\026\276\014\370\207<\037Nr=\013\023A\275\365\002\024<4:t\275\240\301\217\275\375A\014\274\325\256\010<{\274\201=D\'\314\275[\213\214=\\}\t>\022K\214\274\353\026\005<\326o\357\274N>\025<\324\335\256<\220\250\240=8\236\271\275\214\031\032>\373\372\003=\251t\303<]@\216=3g*=\030\t\312<\324S\'<G\225\370\272|\272\226\275\006\314\302;\261\201\205<Oo\347\274\341\310T=\253j\'\274l\330\334\275u\347\215;\335\024\243<\340\030\240\274\323]?\275#\347E\275\352u\303\274\270\373\006=\n\266L\275\257\246\317\275\202?\313=\321\301\007\276\326\000\236\273|\233\261<\030\325\300\273\225R\264\275%\003\341\275\317\300\303\274lI\3749x\\\351\275\327N.\275\026,X=\016\374\341\273\254\210<=31\032\275\252\353d\273\232\314\210\275\361V2=\244\033<=@mH=\212\362\234<6\200O\274H\2005\275\273\021\016>\320\322\374=\017\371@=\033\303\273=\020\226\253\274S\322\001\275g\243\017=Lk;=ak\370<C\362\201<\000\354\362\274\270\037e\275\205\254^=\245\256\020=\253\032B\275\023c\232=\232\020U=h\030\206=\353b\203\275\215\3461\275y\354-\275\nx\251\275\017h\001\276\t\334)\275\356a\311\274\312E\207\275\307w\233\272\316U\236\275\366\005\341\275U\256\310\273oE\034=\3125O=\2265\031\275\013XX=q\272:\274AK\377<\374A`;\177\242\375<\215l\346\274\010\361\235=\214\004\210=l\324\217\275\272\205\225\274\271\333\256:\326\361 <\230\030E\275\307\373\014\275\346\227d=\376\224\033=\317\037!\2759\235\270\274Xe\253\273\317F\001=p\341\201=L\356\025>\r\270\355=\364o\227=u\336&\275$|\306<y\'\252=@L\014\274A\224\317\275>\264d=\215\031D\2757\016?\275KBM\275\263G\220=F)\362\275\032/\365=\003\023\202;U\201\300<\235\212\220\275\273\260i=\001\000<=F\340\321=\314\030 =J\367\030\275vIZ=c\013\243=\024\355\377\273%r?>7\376\223<]v\364\275\213Yj=$r\033=\000\005\250<\304u\361\273\377\177\016\275\334\246\031\275 \332\273\274B\262\301;\301Us=\251\256\333\275?^\335;\227Z\331<8\315=\275\n\r\350=\006D\004=\347\301\034;\3210\314;\203\220\217\273\375\022\323;\326\214E=\"\266\"<{V\2209\3379c=\221\313\314\2757\323J=\272\330\\\274\024\n\205\275X\226\344;\353\302\352\274Pi\276\275t\253\210\275N^\033\275@7\010\275\254\273\203\275\353\034\206=\235,\225\275S\020\332\274A?\274=d2j=\027w\340<z\374}\275}N =\206*\n=\206\251\033\275<\021]\274\351\266A=\371\327\207<B\306\023=\314\016\025=\005C\251\275\243\252k\2758J\014\276\300\272\337=\363e\252\273B\355\272:`\275\301\274>(\327\275\304\302m\275+N\307\271\241\215y<\331\273\244\275\017\201\254=\247[\253<\222s\315\274\305\027\312=\033\005\314\274T)\267<\010\300\\=$O\230=\356\370\"=\373}\005\275\253\007\317\274\034\236\217=\354\003\247\275\324@\255=\220U\262\275\334D4\275\210V\240=\320b\023<\336\254\222\275{vf;\033\373\313=\333\252-\274*\246\212<^\247\035<2\016\356\275\201\006\203\275P\004\304;L,\260\273\031\252d\2754\353\202<\344W\256<\365\005\014=\3633\351=\270t\206;&\252>\276<\325C<,\025\364=$\273\'>\227\376\216=\303\362\215\275?\214Q\275\364\264\255<\325!Q=#(\342<(\362\317=k\307\203\275\"N\200\275\264\202\000>\206\247\247=[\355p=\345\177\031=\213\276\345\274\311\244\366;\006\200\333\273\3320\021\275<\206\037\276\007\026\271=m\244\352\274y>R\274\365ml\275s\313=<\202U\013>\030\255(\276\331[L=\002\3326\275\357\215\272\274@\342k=5\354\274\275\227 \253\274`T\344<g`\t\275\014\335G\275*\226G=\2079O<V\315\206\274\247\364\375\274\327\"\205=9\217^=\322pP=\215\271&\274!>\234\274\237\013f\275!\360\211<\300pv:<\202\317\274\021;==\274\324\207=\315\316\020<.]\220=[w6\275\n\240C\275Z\267f\273\221I\t=\311\376\225=\'\342;=X43<p\325\232=\211y0\275\005\210\306\274\326[y\274I|j\274\033\016\003\274\342A\007=\200\371\310=1\004\236\275\236\251\303\271\007\331>=\333C\006\276\251GR=x\357\3229s\317\361\273\253\330\252;IW{=\207\236\033=\0001\312\275\331\223\375;\024\321\220<\006\234\001=\031\251e\274\243\245\357=\024t}\275lh4=\3250\277\273\211\'\254=\301\202\215<\276\'\245\273\031:b;\364*\004=qZ\301=\244;\274=\303\273\203\275\022\343^=\214\265L<o\344\343=\3224\226=\231Y9=\224 \037\275\274\217\243\272\216X\267\275\351\342\213=\247\270\354=\033\303G<\363=?=)\273\346\274\255g\305\275\344\333\272;\343\004\215\274\367\247\300<\035\256^\274>h/\275\304\317\004\275\273\330\347=\232\307[=\000\256\025<\014n\306=\240+h\274b\214\"<\371\257\302\275^\330\262;\224L\251\275\257\326P\274"
      }
    }
  }
}
node {
  name: "LSTM_1/kernel"
  op: "VariableV2"
  attr {
    key: "container"
    value {
      s: ""
    }
  }
  attr {
    key: "dtype"
    value {
      type: DT_FLOAT
    }
  }
  attr {
    key: "shape"
    value {
      shape {
        dim {
          size: 4
        }
        dim {
          size: 256
        }
      }
    }
  }
  attr {
    key: "shared_name"
    value {
      s: ""
    }
  }
}
node {
  name: "LSTM_1/kernel/Assign"
  op: "Assign"
  input: "LSTM_1/kernel"
  input: "LSTM_1/kernel/initial_value"
  attr {
    key: "T"
    value {
      type: DT_FLOAT
    }
  }
  attr {
    key: "_class"
    value {
      list {
        s: "loc:@LSTM_1/kernel"
      }
    }
  }
  attr {
    key: "use_locking"
    value {
      b: true
    }
  }
  attr {
    key: "validate_shape"
    value {
      b: true
    }
  }
}
node {
  name: "LSTM_1/kernel/read"
  op: "Identity"
  input: "LSTM_1/kernel"
  attr {
    key: "T"
    value {
      type: DT_FLOAT
    }
  }
  attr {
    key: "_class"
    value {
      list {
        s: "loc:@LSTM_1/kernel"
      }
    }
  }
}
node {
  name: "LSTM_1/weight_regularizer/Square"
  op: "Square"
  input: "LSTM_1/kernel/read"
  attr {
    key: "T"
    value {
      type: DT_FLOAT
    }
  }
}
node {
  name: "LSTM_1/weight_regularizer/mul/x"
  op: "Const"
  attr {
    key: "dtype"
    value {
      type: DT_FLOAT
    }
  }
  attr {
    key: "value"
    value {
      tensor {
        dtype: DT_FLOAT
        tensor_shape {
        }
        float_val: 9.999999974752427e-07
      }
    }
  }
}
node {
  name: "LSTM_1/weight_regularizer/mul"
  op: "Mul"
  input: "LSTM_1/weight_regularizer/mul/x"
  input: "LSTM_1/weight_regularizer/Square"
  attr {
    key: "T"
    value {
      type: DT_FLOAT
    }
  }
}
node {
  name: "LSTM_1/weight_regularizer/Const"
  op: "Const"
  attr {
    key: "dtype"
    value {
      type: DT_INT32
    }
  }
  attr {
    key: "value"
    value {
      tensor {
        dtype: DT_INT32
        tensor_shape {
          dim {
            size: 2
          }
        }
        tensor_content: "\000\000\000\000\001\000\000\000"
      }
    }
  }
}
node {
  name: "LSTM_1/weight_regularizer/Sum"
  op: "Sum"
  input: "LSTM_1/weight_regularizer/mul"
  input: "LSTM_1/weight_regularizer/Const"
  attr {
    key: "T"
    value {
      type: DT_FLOAT
    }
  }
  attr {
    key: "Tidx"
    value {
      type: DT_INT32
    }
  }
  attr {
    key: "keep_dims"
    value {
      b: false
    }
  }
}
node {
  name: "LSTM_1/weight_regularizer/add/x"
  op: "Const"
  attr {
    key: "dtype"
    value {
      type: DT_FLOAT
    }
  }
  attr {
    key: "value"
    value {
      tensor {
        dtype: DT_FLOAT
        tensor_shape {
        }
        float_val: 0.0
      }
    }
  }
}
node {
  name: "LSTM_1/weight_regularizer/add"
  op: "Add"
  input: "LSTM_1/weight_regularizer/add/x"
  input: "LSTM_1/weight_regularizer/Sum"
  attr {
    key: "T"
    value {
      type: DT_FLOAT
    }
  }
}
node {
  name: "LSTM_1/recurrent_kernel/initial_value"
  op: "Const"
  attr {
    key: "dtype"
    value {
      type: DT_FLOAT
    }
  }
  attr {
    key: "value"
    value {
      tensor {
        dtype: DT_FLOAT
        tensor_shape {
          dim {
            size: 64
          }
          dim {
            size: 256
          }
        }
        tensor_content: "\027\024/\275\t\325\244<w\207r=\0176I\275\224\212==\353\024\035<\222E\262=\0173\240\275Y\350\030=\211\251y<]\357\224<\272\022q\274;TP\275\210\200:=K\210u<\277\014\335\274LZU\275\262\374S\275c\272l\275\2505g\275Y\364\337=\327Q~\275\364\324\"=W\034\314\274\267\'\022\275\013\232\347\271-9a\275\033\305{=\366I\276<\207\027\340=F\306\353\275g\343\202=\250\\O=+_p\275\265\000\346\274\262\320x\275\3209\315=jy\235=\377\352\277;\362?\246\275\227\303\375<P\366\341;\0370\370\275\330\240\211=\342S\033\273\263>\276:\345\354\231\275\325|\346=\341\376<\275\343H\343=\203K\335\275=,2\275\230\020\233\274\317K\371<\274\257\203\275\007\240\211:\'HN\275\335\354\263\274o|\245</\220\006\276\336\302\231\275\245\270g\274z\263\033\274\326t\256;*\203\214\273\221d\221<qP\002>T\211/\276\002\244K\273\257\276(=C[%\275\034v>=<\031\022\275@\334\235\275\027;\010<Y\203}=\261\027\244\274\243e\227\274,a\307=\222m\025\275/\250\233\274gw2\2755<\337\274W\2319\276D\312\355\274\0109\034>Z\245\201=?U\356\275:Ws\275\210@\202=\021\216m=\000\315\233\275\246%l\275\361R[\274\327\215#=\251\300\272\274T\354\223\274\226\316\204=Dc\007\275\343q\222\275D\353Q\272a\276\006=n\027\320<\271\202\252\275\353\341D\275\337|\334\274\177O\n=\362\363\303<\020\000\254=\016;\265\274\251\252{\274\362\301w\2752\277\341<\\`\333=\020\305\334\274\330P\320=\301\372\201\275\367-\327\275\370\353\322<}}p=\202\252\325=}\212k=K\017|=o\365\027=\032\353\036\275\204\231\360<_\247\305=\0333,\276\377\302\024=\325u\274=\002g!=\336\363\350\275\216\375o\274\263\263\327<\310N\210=s\307:=\363\312\273<\377\266\253=\255)a<\340\301\2338uj\002>\354\204\352=\361}v;\374\r\020\275+\211\224\273o\207&=a3F\275gz\326<.4\232\275{\022\232\275YN\301<[\021\330<\233\335#\274\005\376#\274\303\302s\275\344\000\273<\021X\347;\221\376V=\326\257\004\276!v8\272\276L\022\275\314O\250;\322BJ\275\032\352\334<n2\013\275\341.\266=\204\364\212\275\224\274e\275\333\027[\2736\272\"\2742*\n=v\020\225:|PN>\214O\024\274\3535l=C\022\353\274\332W\262\274\017\211|\275E\031[=\243\326_\274\006\213D=S\254\036\273<\021\300=\331$\235\274\206u\'=\271\214\275=ic*\275\250\341\'\274\027\226\036>\003\217%\275\317!S=W\316+\275R:N<\007w*=#\022\010=\361R\006\276\272J!<*\321\211=\000T\233=\261\331)==\234\235\274\272\005\r\274\224\340H<m4\300;\345\352\356\274H\220\270=\\\252\325\273?\274\007=j\332/\275\343\014\272=6\214\253<\333\247\305\274\220\354\234\273\342\216\207<\342}\235\274\230\253\202\275\037\311\311<oT\271<\013QM\275\242*-<T3\001\2741\346\010\276\301@\222=\216\030\003\276G\246\363=\035Z9=\240C\241;\304\230\227\274\363\374y<5\314\324;\367\252Y<z\000\003\276\215\374k=\225\371]<\220:f<\003\273\336<)\000A\275C\353\207<\350\032\332=>\177\212\275\330\366\023\275\305Fl\275-\225u=\344\231\024\276\274\235<=\361\203\364\274\237Q\306\274\35788\274Z\337*=\300g\302<\251_k<\001\336\014>\3216^\275\'5\222\274\334T\354<\273^\002\275\334P\211\274e@\"\274y\356\241\274\301\327X<\366O\366\274;\371\203<\\\376\r=\346\036\320\274v\327j=AX\003\274\352\000K\273\372t\306<%\177\033\275*(]=\347\250\'=a\327\304=\343\364\243<\230@\244=Zab=\275\336x\274%\020\366<}\206T\275\363\275\304\275T+\026>{p3<\372.\274\274J\022e\274\201\320$<2Q\251\275\201\351\261<\314\'\265;\014sl=\232,]\275~\332\r<\204\006\021>\0307\302\274N\352:=\010\213\343<\346JI=`\270\271=\234\347\261=@6\t=H-\251\274\210\247\241=Q\304R<1j\235<\231}\023\275\354K7\275\336\266\000\275\006\334\017\276\263\374\304=\256\206\362<\217\340H\274<\221L\275tX\361;\037\022w<\330\207\362\275\333\300\006=\362\3731\275\017F}\275\270\240\022\275cp\275=\327\235\274<\205\310\240=\002\260\334\275\301\023S\273\037\027\032\275hKI=\330K\265:\301\373\206<\n%\333\274\267\362\253\275\372l\206=\342\235\345=@\372$\275!\205c=-b\214<\354\220\304\275\324\017\231=g\217\242\275\256\322\344<L\310\345<n%6\274k\233\362:k)\355\275#\343\260<Y\333\224\274\277L0\275\352A\271\275\233MY\275\220oD\274\260\305\257\274F\377\217\275\020\016\216\275$\363/\274\276\027\246;eC\025\275!\253\027\275Ax\302\274\232\232\016>\023\255\206<\215\024\303<Sd\215\274\277\315U=\264\261\201<\212\362\261=\365\211[=1\300\236\275B\370\225=\202\017\353<\302\237\022=\362L#=\200\0043>:\300\322=\234\375\316\275\034\300\221=C\332\252<\'e\">\206\246\351=\200\330@\275#\006\004=_\230\322=S\\}=\210j_=D9\377<kR\362\273\253\037\310\273\365\006\262\274\327\337\024<\276C\215=]\377\266\275\201\244\256;]\tN<\373>\362\275\025\022\207\275\337\360\">\316W\"=\336\'\310<#4E\275\007C\234=\rB\257=\261\270\302\274\376\275\252\275gD\275=\033T\232=\024c\000\276\326-\177\275g\0048\274?WT\274|\274d\275\036\336I\274\030@B\274&\377\207\275M\350\274\275\325%5>\022}\340=\036\324~\273H\024B\275\341Av=\374\340G=\367\237y\275\362\326P<\216D\235<gn\301\275\365\353\007=\005\261\306\275\006\"\007>u\200D\275\244p\200\275\275\373\024=\351\350\225=\234\305\013\274\356\376\272\273g7\214<\261\234!=\362h\017\275#\256\277\275H\320\276\275\217\205\344<\277:\222<Rs\271;\034\202\333\274(\227<\275\223\224\037<-I\250\275\022|$<&\226\215=\215\210\027=\n\2332\2758\234\t>WF0\275\340\311\333<\267~.\275\034\240\240\274<J\310\274\274\256\320\273\267W,\274,\030\336\275#\223\'=[\307\305;\375\315\335\274GK8=\010\213\030>\362\212\317<\265\320\001=\217\235\252\274\326\025\224<w\215S\274o\t\261<\177k\344=3\003\203\274L\312\357\270\233yf\273\226\202+\274\001\201@=]\005\311\275\246\316\324\274\206m2\274\014\237\234=\036`L=\245\361|\271QH\217=\022+e\275\245\321\307\274F\027\013\275\013\350U\274E\201\311=(\274i=\200\302\262\274\343\246&=)\361|<\325(\317<c\013\025\275\360\272\006\275P$\027\2758\376d=e2\241\275\362N\301;\362\027\002\275YN\235\275$=A\275\307\245\260\2758\037\013>n\273/\275/1\311=\201d\210<)\335\344\274|\2740\274j\033.\274\276\0300>\235\346\264<d=\352<\350u\362\275\366\267\217<\374\230\267=k\3411=\357{\360<\355\233\006\275\025\177\013\274e;?=\257\327\233\275]1\027=$\361\241\275\375[k\275\220\231\037\275\001\304x\275o\322Z=~\223\310\274V\237\265=\254\177\346<\245\336i=\375{\301=\377\325\350\274#\252j\275\271\207:=\314x\256\274\323q\337\274d\037\004>\336$\313<&\257\020=\206\332\223\274\314\177\203<\354\210F\274\020}\313=\212\177]=.N!\273\334\226\246<\200>}=\254\366E\275\367A@=`\r\3109\242\223_\275\321\326\247\275\037,l\275\337\376\016\275\367\276\277=\323\373^\274oL\240\273&\325\221=%Z\304=zT\327\275f\217\223=@<v\275\201`\360\274\025\273\022=\221F\214<\375\244\350<o\260\227\275\272\221\n\274\365F)<\010\t\027>\335j\377\274\253\025\312\274\\\241\314=\240\371\301\274\223\375\246\273\356\315#\274z\226\t=\220\221\306\275N\031\332\274\230M\022<\2300\003>)\261\021>\326CB>`\244\036\275F\212o=\244U\036\275\360\037\026=\362\321\036<U\352l=\260\361\025\275P\'\220=\2545\237=y\204\345<_\222\004\274\260q\275=/\215Z\275\331\327\010;V\'\202=\037V&\276\037mU\274\004a\325<\2775\022=E\333b\275D\251c=90V\275\3121\353=/&A=fpJ=n\201\007=\342nK=5{5<\212w\225<.U1\273\231h=\276]I\036=\3161);\335\026\276<\210zA=5\235\260\275\253>\032<@\241\265=v?\3119\200\301\016\274\234t^:\244\310\246\274\006p\217<\321\3734=\245\222\260=\320\227\340=h\251\006\275\016\332y=\202\030\332<,\243\200==,\026\2760\003\237=in\302\274\216\201i=\227\025\354=\033I\265\275Vm\027=\005\350\322\273\263Hp\275\004\375\310\274F\207\220\275\006\344r=\32256<\313\352\347\274\006\252\263\275\036\211\202=y\226\217<B\212\252\274\240\370\255=|\033\022=\276o\010=\350\362?\274h\213Y<s\n)\275\2022*\275\246\265\207<\253]\346\275\202\341\323<\340\245\215\275\304\364G=\234\010\216\274\216}\205\275i\370\034\2751*|=\337\374\337<\240\005\325\274\037\234^=\016\274\021\275V\n\302<X~\347\274\304\316\241=\202V\023=\310mb=\305\034\016\276\351\217\355\274\377\3246\274Y;.<\212a\213=\007\304\320\273p\202\200\275\005\023\342;|>G\275\277\300 \275n\037\221\274b\303a\275\212B\321=\233\274\036\275L\345\325\274\024\351\367\275\325\326\002>H\013L\275\305G\221\275\002\007\004=\023FG\272\345\311\253;\\\2237\275u\300\235\275:\014w=\333\264\337\275\334\363\341<\212\253\210\275;\223\023\276r\234\014\275!\371\356\275\020\247\212=\341Y)\275\373\374\200;\263#n=\353\036\231\275\017\240\036=?\304L\275\372<\224<\016\204\354=\245NE=B8\201=<=\274\275\336\342\013\276\'\264\206=\231\211r\275\362\323\233<mM\365\275\337\305\331\274\033\326F=V\022q\274\215\322C\274Qk\007>\235xk\275\337\017b<\203\"d\275\371\312\n\2748\274 =~\331\210=JM\215\275\231\310\031<\333\023\271=\214\366\273\274M`\t\275~X_\275in\016\275)\372J<\242\211\264=\361\357\316=\357\251\226=4\300[9T\277\317=\337\220R\275\037}v\275Z\223\250=\334s\033>\343\347\017;,|\034=\230\024C<.|2\274\036\203y=\324\220\204:\004\231o=0>C;\203\254\241=\013\256\364<V2=\275\303vH=d\"\215\274}0\013=\367\035\235<\031.)=n\360\355\274\301\304\372\274\353\374\030=y\374\025\276\336\024U=\204w\365\274C\265\013\273i\236r\275\210h\310\275\266w\020\275\n\344\341\274\000yD=\"\372[:\271\031\273:0Lh\275\216\332\266\275\023<+=\265\347\030=\225\201\033=\370\317\237\275?\371}<\363(\306\275\210[\023>v\006\026>\033\312\300<\2748\r\274\300\207\366:\245+\210\274\001\201\033<\362J\240\275I}C\275\204:u=\314\234\037\2752\263\003\274\322\314(=\342\377\224<\237\016\337\274\273;\216\274F\016x<\315b\256=}\313|\275\r\336\340=\232\022<=h\221\226<\350]:=\"\270+\275\246\212\227;\302\350==\347\251a\275\007\004\357\273\276&^=\350%\232\275:\024;\275 ;\265=j\333:<\302\211\215\274\021l\307\274\350\030\232=_9N=\217\327Z\275%\253\207=\312\370\201\275Fw<<\233\020\217=\223M\033\275\tS\271;G\242\216\275\311\203\276=\370\211\263=\020\336\214;\022\004\r\276-\226\224<#\2604=$\236\242\274\210\004\354\274E;\251=\023_\023\274\215\2508<\201\033\202\275\000\270\265=\253\2314=&,\340\274:\374\235\272*M\257\275u\266\201\275T\272\014\275\376\223\262<\261\276\362=\312\265\n\275v8(>\327\234{=<h\317<\3517*=!\267\'\2756!Y\273\225\257\266\273M6\266\274\025(\021;\226\377\262\272D\263\013=\313\"\364\275\264\246\202\275\316\227^\275\013\245?\273\375\302i<\026I\372\2745\240\243=Q6\245=V\350\320\274f\326\222\274\261G[=\3654\230\275\353\212#\274\202\342 \275\212\262T\275\331B\315\275\325M\267;\350\313\006\275\333\3035<\341!\275<\032\211\016>\3157\034>sx#=\374\000\366\273M\332\210\275\276\313\r==\277*\275\033\026\370\274X\001\253=\336\257\341\2759\311u\275\024\307\017\276\2617\001>\224]k\275\"j\222=*\267i\274\242\240p\275\203)B=i\303\272\275\234 \"\274\3037g\274\3561\255<J6\230\275E_A=P\273\243\275\221\205\277<X\223\244<\371\262\'\275\250\325}\275\235\013\024\275\332i(=\030\211\017;\017\345n\274L\210R=\014\256+\275\362\177\230\275\304\260\326\274\240\375\307\274\2170\377\275\251\321,=O\217\235\275X\332\t>\3751M=\226\230\242=\243,\267=VY\261\275\013\201p\274H\222Z\275\321\'m=\316\247\370\274\006\232\337\274\317\003\037\274\262Q&\274\210b\365=\256\376?=\3316\214=\332\177w\275\315\226\004\275\374\013\230<\360M\031=\316\234\237\271\371j\032\275\364\316\367<\316;\275=P\315\205\2740\352\250\275H\026o\274\372\r\002>Av\232;%c\330\2741\016\033\275\223}\262\273k\032(\276 _.\275\264\212\323<7K\337\274\3678\235=J\350Y=\270\273G=/}d\275\205]\266\274\234\245\264\275\337 >:\311\025\334<]\305+\276\261\322\336=\246\\L\275B~P;\336H\344\275\026\002\016\274L\270\266\272\032\177O<\n\270\000>O(]\2758\250\246<=\264\300=\003\t\273\274>\277T\275\205\353\220=\303\016}\275\\Z\344\274\271.\240\275\304D\345=$\345<\2752\3436<\254\257\360=b\322\301=;b\001\276\274\352\263\274B5:=+\257\222\275\325\360\3077E@\260\275\230d\361\273\253\272\375\273a\351\005=S@?<\031\237\260<Q\020\302<\"w\022\275\305\307\030=\272\335A=\205\233\t\276\000\252\203;)\223B=F\367S=\271Iw\275q\346\037=\371,\215\274\375(\003\275\244z\330=\013\374\021=\303\000\247<*_<\275\237\264\256\275@\213\002\275\243W\240:\365\3156=B2!\275\001\262M\274B\244\003\276\032\324\264\274\016\003\273=8\213\243\272\007%\\\275\334y\205=)Nf\274\037\350\276=\247e\331\273\014>\356<u\021\t>\022\203\023\276\261\010\320\274\234\337/=\350\303s=\356\336\314\275\333\253\254<\271\013\014>\036\037\244\275~BK\275\353\2160\275)\363\270<\357[\273=\243\256\326\275{\212\307\274\001\377\204=\305\331}\275\'r\313=\220=\221<\024\321\357=j\001\253\275\244\023~<\361\275[\275\331\266\323\274\\\"\242<w\361\372\274|\343T\274vw\375=W\347\033=\035\233n\275\022\343v\275c\310\316\274\323\307\n\275\212\025\224\275*\261\017=>c;\275\t\035\206\275/\201\254\275*\323o\27508w\275\000\037\353\275[-E\275\343\252z\275E\013#=@\310\201\275\006\003c=\342\236\\\275\353\352\030=\244\235+\275~\230\036<\023\010$<Q\243\210\2752\354\016\275Y\r\320\275\352\310\327;\315/t\274\037_\347\274*P\272\275\313\252\235<\230\013\214\2754\345.\275\333\004\343\273\253\2748\275\345\311\r=6)\035\274\342__\275\341\324\320\274\220\206y\275\353\027\253=\031\312\212=\346#\277<\'[\201\275\211\364\332=\343\230\223=\242P}<\330\312\360<\344\3153<\227Y4\275_\230y<\354[n\275Yc!=ZMy=\022\0054\275\324\'\032;gI\246<\037-q\275\021\213*\275\273\324\262;\037U\315\275L\031\234<k\316\217<\314\003\267=T\010\006\274\206\n\004\275\001\263\312<\353\320\272=\203#\031\276\353\226\244\274llu:\264\372\231=\"\342\\\274\212\234\210=\354\014\210=\274L\230=%^f\275P_\330\275K\024\334=jE\251=~w\276=e1\203\275\370S\301<\307\022\217\275I\315\343\275\334<\"=\206\312\343=\026\201\0068\366\224/=\377\036\034\275\"\261\272\273\340\245\270\275\331K7=\321\345}\275\302\274\27484\317e;\206\357\354=!n\376<P\332\276=fC\2169%9\342\275\301\207\362:\216\006(\275F\361\350\2756-:=\365Y\332=\332\335\257\2742\253\023=Epd=\3353\353;\016<\030\275\002\230\220\274Y\240\307;\321\214g;\366\200\360\274\250d\377\275\252\263\214=\247\360\003>\032\220\204\274\023\341\022\275\0265S=S\324\275;=\261u\275:\227|\274\315\257-:\215\224\013>.\260\230;\336a\272\2751\345c=\032\030\255=7I\243;bLc\275\332\007\241\275\366r\201\275g\207+\274r\271x\273\244\311+\276)4\345;\214\027\211=\325\221\031\275\020\035\267<\037-5<\302 7\275M\327\214\275\351\246g\274\236&\360=cW\261\275=r\032\274\270F\374\275\211\241\326=n\032\255<\270Aq\2744\'\302<\272\034\014=\213_^;\221\023\232\274\323n\262=H.\321\275\037:\030=\t\013\017>z\267\335<\233ZH<!9?<u\326O\274\244\273l=\177 5\275\350\245\250=Zo\003=\333\225\333;\222Ie=\324\317F=\364\211\241=\341\025I\274\265\\Y\275\377\3639\274\024\014K\275\027\272\024=\355\251\200=\377\034\014=\354h\323\273\344\345\313=W{\204<\330\301\211<s\274\222\274\030\354\255\275\301)\357\272\371<\253=\362\266\210\274\323\332\026=\032\350\004\275\337d\002=\367r\'=\2718\226\275\320>\026\275a\254\210\274\307\270V=$wJ\275\310\204\230\275\326\326\303;E\342q=g\022\003=\240\273\033=\026\226\247=;\305\022\275Qz2\275;n\240\274 3x\275\335\340\225=H\306\014=\254\224\325=\242\267\n\276i\370d\275\363\027G=\376\246\220=\316\3540\275\277\t\265=\252\254\372\274\362>\300\274\013S\332=\262\353\241\275\217\3122=}\364D=\327_\002=\003\\\016\275(TL<\323\0138\275\275\236\201\275\336\261\335=!\235\302\274D\'\252\275\000\217\234<x\007h=3\220\204=\226\366\252=\013\335l;\373o\272\274/\275\216=\247\243\335\274-\225\360<_rt\275\\s:=t\337\263<z\207\223\275WC\004=f\366B;uxW<\245\313p\272t\305\261\275\'\255\004=6\244\270<\264e\016<s\330\205\2752\345\212<D\346\305\274\204\267t<\352\376\251\274\246\260\275\275i\235M\275\261\207\001>\314g\261=\036!F\276B\226[\275\"\026O=\324\371\254=4\376(\275\325\310\016=\354\217\033\274\203\2564\274AT\267<\337\324R\275\020\303\200\275\025\222\351;\246\242\361\274\332s*\275\314\314\023=5\267\235<V\245\260\275\'\353\241<\005+\245\274\243=\027=\026\224F=\216\007\306\275f\202E\2712%\032\276\231\300\006\275`\335Z\275\177\365z=\035F\034\274d\034\006\274r\320\325<\3155\256=\203\353\343\275\021d\264\275\264\373\324<\215\234\237=\211\353\330\275}\222\244=\322\234\303=\303E9=\257k/=\271R\005\276\360@X\275h\n\266\275\220\007\020\2740\364=\275\036\245c=\311[\272\274\0069\207\275\317y\335<#6\361<\355\216-=\\8\257=\335P\212=\265R\037\276\272\t\276;h\314?=\227\231\004\2758\263\234<\334\363\353\274\200ny\275X\\\356<\031e_<\200\304\255<;XC\275\032v\034=\245\307C=\0362\305\275\247\252\025\275\224\374\367\275\370\346\250=\237\262\311<q\303\032<\'\355\312<\330\013\200\275\212,\206\274v\232{=\022\300\004=h\321\217=,\177F\275\301\303h=\230o\333\274A\225\004\276O\230s=\373>\251=\006\270{\274\321\006\255<m\003\210\274\026\226o\275\203\370\313\273\246!\307\274\256\216\024=\200\254\006\275P\334e;\230\270\230=\034\267\020\274\375\304\364\275\301T\377\275\371\201\273<\373\362\200=\204\005I\275\316WX\275\334\275d\274\366W\321;\252\236\n\275V/\335\2735(\013=:\267\342\272\266.\317=q\340M=\310\213S\275\362\215\320=\375\363\021=\233\350\322\275\255\350\267\275\315\342\371<\3442\266\274\r\340\336\274\251s6\275l\372\215=Z+]\275\313w\240\275\320\216<>i\301.=@Y\365\273\346\245K\275\221\207\336\275C5\224\274\274M\305<\217A\372\275\331\307z=\311l\306\275\2309\360;\016K@=\177\344\201\275\264?9=\030i\001=[\257\253=n\303\340\275`\033\372<(j\323=`r\206<?SK\275\337q\254=\021\373@\274y\034\207<\244\230s\275B\013p;\324]\201;\357\271\305=\271\250\352\275\240\220\276\275\273W\256\275\234\371k<\301\002\027=jnK\275wO\200\275\243\ny\275>\220\350\275\235O\022<\360Y\275=\274\211&=\211\247\352\275D\375\032\275B\323\247=`~e=\262<r\275\247\347\250\274\253\017\344<b\016\354<\361\021\255\275\256:\331<IO\016=qgj=\271\312\351;K\203\237=\0243\000\276\300\334\233\272v\212\232=($}\275hT0;\204\036\274\274\014\323\365\275;:\022\275\330jD\275\222\351\220<\264\252\273\275\304\377\236<\312\331\271=\322x8\275\363\025\274\273\3605\007<4\363&\275~N2=\324\003,=G\270\321\275\306\036\202=\267\017\035=\351F\026=?\274\301=[\2268<\014\374@=\003\210\225<\350\255\257\275=;\310\275\321\252\247=mjd=>\357\217\275ux\006=\220)r=V/)=\010\210\037\275\"!\377\273c\037\234\274\320\0262=\275\366\211\275\362\277\340<\252\017|<\225\266\207\275c!\336\274P\222\277\274\340y\302\275\347o\030>\366\372z\273tZ\307\275\315\037\233\274\242\305V<|\304N\275w\275\037>Bj\247\274\267m\013=\342\320-=J\375\311\274\'\270\r<\306!\232=\300)\367=\344\214H=\272\303\261\274\34270=\320\3141\274\257\241r<\243\227\302=\214:~=\362\257Z\275\217j0; e\n\274\367?\004<g\034\264=\303ut\275*I\226<]\367\353\274n\336\245<f#a\275\262\017\344\274\006\3503\274\230\314!=B\022\020=\212\300\350<\332!\232=x-|=\035I\370<{)\210\275\313\372\303\2741\226\246\275;7\202=\333)\270<6T\262\275~\251!\274~z\205\274\325\013\242\272\213\000\t=\031Q\313\275;\3059=\320\013J;\326\242,\275m_\261\2753\375\236\271\201\322\020\275\272\374\270<7\246.\274\261?\212\275)#\224\275K\004[<+\024\242\275\250\361\375<A\342q\275\257Tl=q\322\034\275\345X\177\274ym\345:uy\341\274\025|:\275\374\360\031\276\316\333\260=Z\212\332\275]\037\027=\256M\266<\312A\304\275\345\3125=\344\243\250<\2128K\275n\362\200=\313\254!\275\310\322M\275\'\317\332\274h\316\233\274+)|\274\345}\023<I\344%=\215\213\314\275\305\233\212=\257\026\014=\205\201Y=\337\343\327=0d\376\274}h$=\241R\344;\241\275\357<c\304p\2742{\362<\350\372\224=\013\014\372\274,\317\331=\014\271\\=A]\312\274\274\320$<\263\032\037\275\344\340\304\274G#\026\276*\354\002\276>9y=\242\021\202\274\001Y\201=\033Xx=\206\364\325<\257\373\334\275\205\337O>\210\261\251\275\362\214\374\274\323\221\353\275t\020\327<\267\322<\275\373H\313<\233\221^\274O<\325<2\324\224=\200v\216\275\330V\005=\021\210y=\2372\360\274\277\372P=\263\357J=\257|$=_dw<;\021\222=\277L)<\333\251\345\275\021\037\232\274\226_W<9\345\360=-V2=\343\016\306\2759Z\025>\344\320\311;(\251m=4\324\242\272Ax(\274\373O\021<\370q*\276D\374)\275\364\227\353<XN\312<$\301\357<\306\372W\275\211~9=\337\3405\275T\212\277\274.J\244\275\234\341\264=\302@A\275\260\377\000>\265\334a\2754\277\255;\207e\367<V\265:\273\234mc=\214\231\345\274\343\007\205\274]\314\276\275\374\246\246\275m\224,=\201\231\213=R\310f\274*\375\002=$n\177\275\3732\207\275~[\3449\032m\216\274\347O\351\275\301eV\274\345dP\275J\241v\275m\304\232<1@k=$\357\263\273a\\s\275\307\214\324<w\264\325<fE\210\274\3374\030\275 \304\003\275\006\344v\274\245]\240\275\352\310\006=\301Q\031\275\346\204z\275h[\017\276\222\273\226\274\311s\356\274\205\314$=\226\220J;9r\033=\346nP;;t\013\275k\211U\275_e_\275\267f$=\372\000*\275\357\217I\275\253\365\341==\037\343=\230\344\212=\275\311Z=B\026\372<\213\361\273=\225V\232\275\212\321\242\275n\323\275\275\313<\207\274\222\255\237=\204\305\036\275s\317\016\276\353\377\277\274\275>\334=\250\316\254=\271`:=\326\200\033\275O\2542\273\205\276\353\274\252\265\373<\357\216\346\275|\353\316<#;\020<\037\321\321\275\311\212n\275\270\361\010\275>\026s\274[\241\027\276\242\002\007=\333\231)\274tPh<\333\177\314\275\003\3618<U\212$>\350>\363<}\252/\275rH\242\275\265\240\301=\365a\242\275\017\367\207=\326\3035\275\350K\027=_O/=j\016\007\275\357\177\212\275\313\324\247\275M\213\253\2753\272\212=o\234\306\275\375\204_\275\242\217\336\274\3560\030=\304\367\242=m\225\205\275q\377\263\275\260H\200\275+\200\246:1\374~=4/\r>\202O\367=\217\tg=\234\203m\275{\343\t\275L\337l\275\024\235\036\275\326\003w\275x\016\017\276\213\250\252\275\240\374\330=\025\036n\2742S\345\274dX\375\274h)|<,\037\227<l\270\300\275{-H=\301\001\236\275\207n\352\274o\230\26791\240\220\2753\270i<\244\224\230\274K\343}\275\177\321A=\210\376\320<\313{\030\276\320h\331\274w\345m\2753_\245\275s\351v\275F\251\313\275n\356\212\274P\315\262\274`\210\202\273C\364\304\275\275\243\224\274\201\026\253\274_\311\212=o\354q=\321\3508\275\311\350s\273\016W9\270\311\177\204=r\241\260<\334qY<{\303\224\275^\220\251\275\237 W=\241\230x<]\023\017<\341\322\223\274\366\222\302\271\362=\343;\313\216\241\274q\204\377\275c\337\316<\317\320\003\276\265H\253=A\021V=\351\313\270=jRu\275\010 \014\274\006\372\202\275\007\307[<\323\022\211=\272\217\007\275\324#X=]\030\254=\374w6\274V\313\251\275sC\002\273k\217Y\275\332\216\244<\177Xm\274\373\322\303\275\005\222\337=\246M\372<\277\177}\275I\243\361\274\204\205\305=Y\256\220=_\210\203=\227~\023\275\013>\306\274\031\017\240<\244\312\025=\020\022j=$e{\274\244\020\211=W\247z\275)\336C\275>\252\257<K\232\222<\366\355\224<C\271\214=\313@\236\274I\022\270\273\224\312\211\274\247$R\274N\277h\276\215XF=\225\370\337<\214\023\262<\343\220\014\276-qY=\252\236\230=<\370\311<\200\237s\275O\320\245\275\246b`;\251\016U\275\364g\210;\005\002?< \220\200=*B\027<\324Js=\274\270\024<\334\017\253\274N|&\276\221\264\263=\266M\316\274\243*0\275Dg\225\27473\234\275\306\213\264=x\373\317\274,g\306\275\354\316\242<l\260t=\\f\252\275\255nO=U!\311<\n\346R=9\017\302=\216D\024\275\262X\346=\247\244\000=\r\317\210=L\242\036\275[\202\306<x\275\211</\340\226\275(\021\026\276Q\254\275<\005\367c\275\000\325{<\013\240*=_\030\244\274\216W\222<\344\226P=5\355\203\272\3566s<B\261\241\275\021\214\023\275!|\036\275j\'\014=\3673\330\2751X\007\275\256%3\275u\362\001\276\207&+\274,\375\273=\013\230R=\300\303\252=\026\271\204;\352\323w\275\0315\220\275~\312w\275\262\260\017\274cN\354\275\232>\300\275q\300\225\274\233\211\247\273\016\t\237\275\303\372\374:+7\230\275l\217\270=\202\352\211;\ti1\275\260\371\256\274\214\007\235\275<\005\267<Vp\202\275\244\364\364:\2536\376\274^V.<\365\321\343;\224\307\227;^\241\254<\253\202\002\274z\337\220\275|\035\313=n?&\275\3115\255=\364\322D\2753:C\274/\022\311\275\313\340\200\274j\366P\275\303\213\200<%Y\230\275\325I\274=\217\325\301<\263\251]\276IC\252\274(\376m\272%`\021:\300\217<\275\241\353\201\275\2278\340\274\025\264s\275\255\213`=\214|P\275P\177\256\273\206\224\340\275\343\312Z\275q\371\232;\366S1=\366\257p\273Bqn\275Q\201\323\275\370\366\260\275\376\243<<SbM\275\230\367\\=\306g\035=\322\t\200=q,\231\273l\367\245<\365V \273\301\215\344;!\2075=\3276\305;\360\336!\275\313\271\315\275\274>\343\275c\213\263\271\260\201/=\312\256\177<\312\237\002\275d\255\002\276b\203\270<\221\024;\275\355\260v=\233\273W=\314f\270<\326l\235<\334|&=J\307\213=Y\206\027\274\262k\256=\311\013$\276\302\027\240\274T\256\324\274%d\023\274 B;=\271\303\002=\254N\253=1\340P=8sD\274e\"\327\274b\013\256=\2541\216\275\363\027\215\275J\267\025\276\331pU\275\255\031\207=;\033\222\275\005\260\177\275|\250\253=Q]\234<\323\250\222\275\376D\335\275\327\250h\273r\355\350=\230\327D=y\227\264\275\233$P=\357H\251=\211R%\274\000lk=\307\303\004=\236\020/\274\026\014\247=\014\245\320\275\332Q7=v\304\306\273\333kD>{\357\220\275mx-\274_\005\337\274\032\340u;\314\362\365\275b\0005=\364\0376=O\314\247<\223\243l\275g0\342=\240P*=\233N\033=\323\033V;\n\340\215\273zQ\363;bJ\"=^\206\351\275G\226v\272\370\202\304=D\251\332<\032\'\036=\371,\006\275SD&<V\303\273\275\312N\272\275\007\255\362\274r\370\224<\277\353\320\274\375GJ\275h\370C\274\304\nU\274\305\263\262\274\007\365\270\273\351\262\016\275r\272\003>U\030\033\274\356cj=\263u@\274\035\177==\3444\246\275\000\311\241\275,\343\371\275\362\364\302\274\220\247c<\352\201,\275\013\237\233\275\300\276 \275\311\354\333\274\226f9\275A1\235\275\215Y:=z\025(\275\203\323\302\275u\\\033\275\235\300\240<|X\260=g\250\317<u\006l\275I*9\274Yy\362\275@\250\274<\3233\002>\177\203\\\2734\225\027<F\306\026<\001[B=\334\322\247\275\212\026\273\2745\344\020=\347|\024=\342z*\274\217\301\201=@\275\033\275\227\035\223=\303\246\216=\354\2547;\232<\230<\351\207\366<\200\303\266;\217r}9QH\001=\227qf\275{\003V\275\021\220>\274\264\211\220\274Z\341\266\275\365E\337\2740\033\024=\325\324\211=\277s\r>\232\374\334\274\312\322\247=\351\347{=\036\360\222\274\264r(\275\2771-\274\3618\234<\247\2071>w\332\331=\2335r<\255V\024>\264\355F\275]\326\024\275[\313\030=\266\002\230<~%\036=c\233\036\275\2061\007=\301\027E=\233SH\275Ak5\275#w1=H\033f=\272D\277<\251\035M\275\356\246\311=\206\241\347\274\303c\345\275\025\003\322\273\375\007\202\274_\255.\274\032DR=<\210d\275Pl\347\274\335q)=\333\233\206==1\234<\361\262\252\275\017<\226<v\2724=\304CU=$/U\275\363\300Y=#\207[\274\223\"\220=g\214X=\316Z\322<\021\251\026>e\016\r\275\022\333o\275\216\254\335\274\224\371b\275X\337\351\272S\001\010=\007mD\273\2523\'==(\206=\272\245t=g\207\272=\n3@\275\250\370\374<\363\001\316<\235\\W\276\351\'\332<\220\017g=\321b\321;\345\237&=\243`\347=\264\024\036\275\032V\017\276\321\320\367=vr\267<\270\020\332=L\355S<\276-g<\315\300\215\274\345\000\306;v\020o\275\355\327}=\356\247\317=\303)\210\272\366\265\025\275\357\237\261\275,\330J=6f\263\273\271\027\316\275\025\322\256\273\343I\375\274^\314\277\274\370b\352\274\247\273\245\275\321\005\022\275L#W=s\232\301\273yJ\240<\023\221g\275ar\247=\267\353==\021\351\236<\024\253\364=\224\342\201\275`E\335\274\347\360\002\275\375Y\021=\207\205\301<x\242e9\036\337\333\2750{b\274\352I\212\275\035,\200\275\257\347\244\275\274\373a;\337\312\265\275\242\037\277=\252\014\245\275\275\256!>io\033=4\264\275\273}\207\262=\2577\375=\360\"#\275\013\327\013=\021/\036\275lz\026=\n\254\035>\013\330\326\275]\215\363<\257\223\241=\267qX<\372x\347\273\375\005}<\275\373\230<\324CH\275ZM5\275\000b\211\274\014j\215=\2252\373<~\343\236=h\312\030>\336\233\202\274\257\032\350\273\326\374\257\275\315\177\212=\367\263\271\274JUl\275%\025\252\275\206\234\010>n6(\275\324g\246\273&\034c\275*u\312\275\260\023\234\275k\003\375\274`3r;\344\334j\275x\274L=\275\216\244\275r\346y\275\270\271\n\2755E|\275;t\333<S[\004\276\353L\261\275\271\251E\275y\253 =\261\342\224=i\344\363\275\205$\025\275\377\207Y\273\302j\377=\256\350\334<C\265c=\031\020\200=\271iT\275\251q\335<l^\022\274Q\021\005\275\027\252\333<\364\375s=<\221\234=\005z\231=?\2129\274Gr\272<\232@\212\275\224&\274\275U\312\241\274\241\310g<\025\307r\275a\202\326\273ai\276\273\375\253\243\274$\241@<\214\270-=\257<\361<\371\276.<\345V\234=\003\373B=s\366\350<\200\204\223\274.4O=\304\204@=\273\030\325<T|\276\275r\266#\275\253\315\266\273\275\225x=Up\361\272\3217\201=\206\326z=Z\022b\275\010?\236\275\236\253L=\340u\203\274ME\245=LnP=\310\376!\275w\266\332;\357\255*\276\371-B<\354:R\275m8\001>9\324\236\275\346\314\243\275\216/\227\273\312\020\340\275lH8=\014\360X<\031t\275\273Q\221\306=b\336\036\275\271\263\242\275\210\327];M\247\223\274\350\217g<\367ZP=}\362\021=\n\372\004=\375)\233=\037aF=<B\316\274\025\245i\275\031@\374;\350]`\275\330\3172\275\271\272\201<Zg\205=\265\340\314=\226\367\226;\261\246<\275\241\030;\275\232\322\256<\366\3303=\252p\270<o\r\037<\013\231\310=&\377^\275\325/\212<f k<\025D\337\274\350\210o<\021\250v=\332\223{=\367I\200\275\226\372/=\373\260o\275\234g\007\275[L\\\275}\305U<\373ez<u9\205\273!D8=\204\2779>\332\247\207\274L\327\271\274\254d==\251\374\376<\253{\300\273\310\345\007\276\325\005\027\273\202w[=\307\254\014<\027\034\262;\261\t\333;\361u\267;\004O\323\275\207\237\241\274\252\247\365\274s\022\247<nr\237\274\243\242\253<\253\311\342\273kP\206\274\003\006\232<\356\252\177=o\221\017\274*\264\226<\020\2071\275\321{H=\\,\013=\247\357\270=0c\356=0\324\177=\275\017:<\303A\273=F\027\355=\300u\340\275g\322&<\251\226\313\2743\220a\2750\337\231=\231\251\225=\204\330\023\275N\037n\27372\">\030p\027\275l\275\277\274\213\367\261\271\220\307\313\275\033c#>[W=<\313\204\315\275\330\t\343\274\036y\034=\203.\356<\221I\267=\323d\014<\302\226\014>m\000\201<\362\366\375\274\000\230w\274\000\017\373<\326\370\224<B\257\307<\001\031\371;(6\t<\003oC>?S\214<\032L\366:\010\005\304=\324\242\032=~\001d\275kH\237\275\272\314\260\275Z\360\215=\2030\201=,@>\275\362\244c\275\267\331\206\273\256\022b\275\245\2307\275\333\234\304=Sx\004=\214\366\213=\214n\221<37\200=\220\245S\274\213\263\010=`\017\231\2754\323\267=\006Ri\275\"}\224=\265\211N=\214\364\253=\270A\372<e\222j\275\321T\340\275m\0166\275\232\343\230\275m\366\005\275\201\370\253\275Bk\367=\342Y]\275\320F\204\274\022:?<\346\277\204\275\345\3564=7\275\252\275RS\307=\307\036\337\274\332\212\200\275\321\033\352<p{\005=s4g\2743\3123\275=\316\313;\356\212\221\275G\271\210\274E>\221\274J\341x\274H\250n\275\030d\"=*\262\343<q\332\235\275e.r=\271\231T\274-\202\002\275\014\036\345\273\3044\335\275Rm\036\274\230\324\311\2757\017\236=\317\215\263<\365=\376<h\256\\\275\362&\237=x\233M\274 *\235<%\206|=\315\203\324\274\210\331\353<\227W\367\2755ID=\354]Y<a\337X<\341w\004<\255.3=\347U\276=\233n\t\275\256\006\004\276\316\301;=\336<\236<eO5;\273P#=\331\363%\274\373\371d=u\335\377<\233\370\306\275\260\264s\274\251]\346;\350\246\237<\036\343\340\274\207\221\260\274LR\335\275\350a@<\223\232\204\275\341Sf\272\224\355(\274\236\017\370\275\027\246?\274\211\034r=\275\002\313\273Q\201Y=\333[\367\273~\212\272\275\241\024#<\272\346G\275J7|:J\020\233\274\002\"R\275\314\3450\275\223\356\223\275\004\n\014\276\244\253E<\025B\000=~\266\032=%\220K=\274=\024=\234g\201=8\245\226\275\311\342p\275xmb<Ke2=\336,\207=\275\016\305<\037\022\213<T\n\231<\347j\224\275K>\314:\222\260\346;\222\0365\274+\256]\274\260*8=%Uf<\343\240\235\275\215\211E=\023\221|=\\w\376<X\262\235=X\215\017\276\037x\020\276[~P=\023\364f=\036\204\001\276\2272\332\275\231`\356=P\257T\274\217k\007>\261\340\\<d\236\303\274\224#\r\274\363\362\313<\371\226\226=\331]3=\3646\342\275*\2704=6\301\277=\205\207)=\247&\'=\216\312\335\273D\330\t\275\260\230\243\274\237B\376\275\373\330\223<6.4\275(z\324\274)\210\021>\313zE<`.v\2758\003\312<N\020\325=\rf\262\274\034c\024\271K\321K\275\302\211J=\373Ik\275`~\030>\326\305\304\274\355$\000\275\244\2432\274\346\2521\274\263\346\364\274\260c\"\275\330\3458\275\363\214\332\275\254\370h:\2528\306\275\3365^\275\027\315\246=0 \000>\301\035J;\314\373.\275\236G\020\273]6\351\275\351\177\013\276\373p\356\272_!M\275\314\215y=\212&o\275\211\252\227\274<\330\005>\341\373\366<\311\222`<`\305\355\273\n\241\022\274\242\271k=\303\037\254\275s(o\275E\332\200\275\350#\236<\232\216o\275\031\033\'=\265~1<[\006\311=2\355\275\275`\310\017\276\303\253\363<\020\232\214=\211p\331<\263\357\260=`\322\370;\t}S=XZ7>\246V\251\273\355\243\246<\005\307\'\275S\316\247\275\014\210\000\276\0239\211=\367Y\276<C@\177<6\025\021\274e\233X<U3\007<\201\202/\273}}\256=pp\270=\217\357\017\275\362\004\357= E\013=\016$\212\274\252\255j=\341\023\036=*\2419=\354\204j\275rH\022\275\336\241\362<V\257O=\375\352\311\275\262\001\357\275\265\311\331;*\321\215=\000\242\215\275\216\371H;\321\220C<\3646\276<-B\006=0~\240=,A\2018\344\317\242=?8\335\275\216V\203\2751\265\210=\326\354r\275\367\243\257\273\007)0=\033\202\242=\242\271\217=c\0254\275\277f\202=H\206\233<\275\241-\273\345\014><\261\322\217=O\303\331\273\340eE\274\343so=\214\272\036\275\246\235\223\275\025\2779\275k\247\006<k3\033>*\220\010\274mU\302=5?\n\276g\306\217\275\252\256\270\274\227\330\345=7l\217=A\307\307<+\030\371\275\003\353t\275\341\350(\275\002\221p\275m2\334\274\357\3040=\344\376\313;\311U!<NnG=\233\276\301\275\027\205\006\275\021P\002\276\372\225\342<QQ:\273\377E\332\275\261\246\246<\023I\233\272%\364n\2751t\376\274\355\236\366\274\013-;=n\317\037>I\372\032=\023]\232\275\013\213\214=\342\267\265=\212:\246=\226\270.\274\333H\203<\372\260\364=\301W\254=i\3320\274jj\337\273\365>(=\255\240\270\275KG\213;2\241\273<L\245\231<\331\302c\275\273\244\251=\271\2765=\337up=6\025\026\276\355\350\305<J\304\226\275\337N\342\275\242\233\237=\315N\212\275#\017\314=$2\t=\372h\236=\017N\312\274sS8=\r\325\206=\370\253P;\013\237b\275\tD<\275~3K=\274.g\274\r\336\177\275\272;\203\273c\324\243=g\373+\274\310=\212\275\307\202\004\275\331\337\214\274\032\337o=c\310\006\275#\377\316\275 \371F<8\r\306<F\250\362<\217\334\034=\376$\312==2\210=\352\261\233<\356;\017<\271\373-\275\206C5<i\356\315=\013g\263=|\234\201<y\030\376=\211\305\033\275\270\301\322<[65=*\033@\275,\363\356<\203\274\224=j\342\204\275\035\372\346\275BJ\315=\r\344\234=\350\001\010<\376^\303\275\352\013\017<\210s\036\274\260\002\273\271\206}\"\274\032\376\235\274m\324\372\274`\220\001\275\301\302\272\274\250Ep\272\nHe\275\367\267\016>\241$6\275\236e.\273*e\303\275\"&\030;\267\263t<\334H\216=1\022\242\274\340\274\020>L\252\373<\231A\353\273\206\341\240\275\362\357\035\2758?\237<]\353\246\275\272p\244<h\250\027\275]j\362\273\230m\263=\325n!<G\353\315=\231(@\274\377d\203=\242^P9F\311\217=\\\327&\275/F\331\274j\220\216\275\365\377G\274\014(\324=\356x\233<8\230\275;.gG=\311n\212=\250>\212\275!\004&\274\247\016o\275\025\026A\275g\264\'\275\234\330\267<J@\350\275K\357h\275\336\216*\271Cv\211=\203\230\233\2750\355]\275\335\276\n\276Mm\326<\244\310\210\275\300\3125\275\315wE\275\266+\315\274\360\252\230=\335\024F\275\221\\\304=\351\305\014\275|\342\'<\251)\230\274I\000\321\275`\213{=\241L\2129pd\013\275\366m\261=\021 \365<\257\017@\275\316r\007\275\3149\333\274e\004\220=\314@\006\274\314\334\205\275\tF3<\207\3609=\317}\037=\037\337S\274\025\024\364\275\002\261:<\034\330q\275w\277\007\275E\257\212\275\250\264\276\274\004\310\353;\3320\254=\224\\e\271\251\266\211<\356\365\353\274\361\022S\275\311\000\223\274\276\352\303<s\'\341\275\257W0;FU\326\273-+a\2756|V\275\022%h=J\354\200\275\256\337\027=>1\204\274(\2111>\310\347\013=\370\347\270:\215#\323=7\017c<,cZ\274b*p\274\016Y\300\274\354\' \275\365\237^\275\344\020\264\274C\327\334\274\021\245]\275\324\005\226=\306\357\267=\336\024\013>\036\376\370<\370\235\356=\037\222a=\343[\364\275 \035/\275\317\302\234\275\271\253\033=\016\221.=\217e#<\361\222\026>\255\256\212\273\'\001\277=\337\257\001=\327x.\274\204>F=\210\354\301\274\243\354J\2757\227o\275\0019i=\346\202\211\274Vo\030=tw\203\275\032\n\260\274\357D7=\034x\032>\217\211\241\275\2365\320=\016\240s=k<\355<x\213$>\2236\313\274w\254\200\2752\314k\275\310\226\212\275\315\253m\275\203\007\277=N?\263<u\376\220<\030\224\275=dvr=\314+\250=\331$\366\275\350\345R\274\017\316\263\275\337A\207\275\201\362\220;U~\336\275\306\310\203\275\317\332\013>\031\347\250\275EpU=\261\224\225\275\013\323y\274\031a,=w\266\251=\322\307\347<\261\374\r=\2326\315=\317\271\330=\357w\255=\0015*\275Ik\342\274uB\307\275\032\000X=\242\236\261=\332\235\002\276\315m(<\274\265\354\275\375\254\265\275b\234\034=\376\351\017\275\013L{\275\300\020\362<\214\257\261;bc+\275I6\330<\320\264\373\271\363<X\274\347\356Y=\202K\264=\266\237u=\263r\367;\026\025f\274\374\337\364\273\223\322 \274\305bA;\255\307\006\275\236|G\275\311\250(=8\315\236\275\264\010\205\2740\tU\275\3524!<k\330\274=\001\325\233\275\357\360\262\275\263\211\366<\215\216\240=`\241\304\270U8\244\27580\230\274:\253\206\275;\225c\274\211\316\316=\022\212i;\334\304\344\274\240r\016\276[\277\010\276`uC\275\371\002\226=\372\002w=FS\271\274n\263\"=4Eb:\024\301\375\2759\016D\2756B\326<O\341\346\274\334\252\236\274(\364\375\274|b\315\275%j\267\273=\014S\275\233\250\375=~\267\025\275\226h\301=`\035\231\275\353\207\347\275\r`j\275[s\014\275\017\302\201\275\2361\210=S\217?\275o\301\013\275\222\021M<w\324\272\275>~N\275p\r\001=\221\033\241\275l3\003\275\347\333\316\275,\332e\275\371[\300=ibP<\275\232\274\273jx\220<\3218\007\275:6l\275<\'\335\274\317\334\310;\352\341\010<3P\230=\236s\336<z\342X=8\335\326=O\245-\275\346+\332<\216\317\330\274\276q\035=\343B\020\275T5r\275o\221\314<\001\244G=\227\220\251\274Y^\334\275\330R\003\275\ni\252=N\3101\276\202\361\311\274\367\375\213\274\204\262\252<\266\031\273<\323~\211\275\345\353\357\273\341F\245;\356\000i\275\340A\256\275\353\247\024\274\365\216\330<\3125!\274\322\323\002<\333\340\244<sd_=/%W=\355tT=\264\200\331<\034]\334=\005&\022=\247\212\000;\004\023\323\275\336B\340\273N\007&\275V\334\214\274\010mV=\350\240\272\274\303d\335\275\270w\024=v\210\t\276\272`\024\275\350\020\257=\256/\317\275x\332\005\273\3556\225=\\/\206\274=>\375\275\\7)<l\032\221=\237zM\2742>\036=\267o\337\272\262:)=\264\346\270<\300\334\307\274\222+;=Q\213\235\275,\351\224\272\266\245O=\2302}\275\312\027\213\274\246\'\006=\242\001\350\273\240_t\275\304\313\221\274\266(+=h\037l==B\\\274\\\224G=\341\002O\274M\216V\275\272\303\310=\321M\033>SK\257\275fJ?>\245S}\275pr\211\274\021io=\212\256\250=\224\327\231\275\365G\306\274\210\3002=\305\333\216=\2745.\275\255\341\236=\027\340\271\274g\001\201\275u\300\t\271;\327\225<\246r\313\274\r\256.;nVi<v\322\034\275\251\217\027=\243\225\010=7\327\244<\252\205\220<:\212\202\275$\315c\275eD\232=\257\034\022<\326\372a\274\217*\020< \345\341=\332\360\366=\251{\316\275\t\350\250:\2310\202\271&d\306=mW\252\272\373\006\204\274wF\303<\260\320\022\275\346a\217=\376-\200\274\346\230\231<g3\240\275\302Sm=\007\333G\275\315\216\004=\337\251\025\275\316\215\330<\324q\357\275\370t\026>C\"\237=\tK\334=\310\033m=\324~\r=\356\230\252<\325\245\333:\0045R=\027\347\'=\035%\037\275\227\266\262\275\302\276\366<\242\212$<\245/\276\274\253\245\345<\007\240@\273\267a\275\2759t.>\226\270\301\275y\327\203=$/U=\371)N<\342+\003<\362q\277\275\306s\240=\200n\251=\2152J\276^%\241\275\333\232\221;H\004\010\275\372oW<\353@\306<\"h\2429\313|\232\274\367\373\207=\254\310\203=\277\316\027\275\203\202\271\275\242Y\264\275\255\032\323\275n\306`<\313\363a=\202\021\332<\327`\334\275\232ZX=\274\247\301\275\271\230\213= \361\231\274\003\240\t\274\036\326\271=X\0161\275\236~\250;\354.\265<\3742n<\253\342\361<\206\377\320\274\003\231\225=\2759w\275\333\024>\275\250.\006<(K\003\275\353\267Q=\3256\335\275\206\210\035>O\215\020\2765\2309\275\262\343\005>\225\003\246\275*\2441<\031B\245\274;\300\355<\2706\215\275\333\202\304<B\026\204\275\214M\024=?\001~\275\003\362\220\275\355\016\277=\334\2614\274\244\306\r\275\304l\374\275\270\"\245\275\021\003-\273)jt=\220\247\327\274\243\276M\273O\245K=M\310t=\252\232\274\275\243/\177=\341\301\036\275\350\030\223=S$o=\257\001z\274\220\326u\275|\371\203\275\323\310+<\374,l=\005\306\344; \232\320\275\373V\234;\032\274\273=:6\016<\352\023\302\274\t\230\305\275\"\017\244\274\250#\244;De\241<^\237\001=\207\204\235\275\337\013\022\275\330oA\2751U\325\274Cj\"=\336\241\346\275|\357\262\273:\310\312\275\207\253\307;\345N\337\275b\250\321<\232q3\275\023I\017\275\353;\006=\2316\234<\363\242A\2747kO\274an\274<0\352\351\275\307\224\274=\031;\231\272\314\230\214\275\336%\027=(\016\003> I\330=b|\320<l\265L\275C\333\203\275\377\033\356\274\333w\314\275=E\275=\373j%\275:\000\027\275mH$=z\333\340<\035\031\016<\253g\357=\335\224\207\274\024z\014=\232\\@=aO\233\274\252\336n\275\307\2008=\346l*<\376\304\246\275\"\304\346\273\367^Y<\354\250\243\275O@\254:\364v\373\274\"e\327\275\304@,\275\241!A=C*\361<\030`\014\276@\227\204=\250\025\275=\314\265\\=^/\213\2745\324r\275\'\277\275=\014S\270\275\361Kc\273d\355\224\275p\201\340=Z\372\004<\330\260\366<\327\215\333<p\316/\275\250\316\244=\254k =\347\362\355<\002\234\014=\207\371\013>\333\363\320<\247\215\277\275\035\200m\272-D\373\274v\273C\275op\002\275+\235\001\2755\277L\275S+\232=\267\"\213<\030m\036\272n\210y\275\316E\021\276\365}\350=\\\260\202\274f\371\252=\306\237\277<\010{\033\275\265\325p\275D\r\025\2757S\321;\222\261G\275D\253P=Y\214\265=\344\365v=\332Kw\273\203\3245\275i\355`=\226\253H<\236\203@<\237R5=\274\216\'\274\245\256\324\274\312F\203\275|\364\374\272\274e\357\274\350w\333\274\300p-=\224=.<\245\213A<\225\356\022=y\262\312\275v\371|\271\373@\200=4\270\031=\010\336\334\274\001\355\220=y6A\275\374$\213\275\253\225\253\275\204\"z=\354\232?\274w\244N\275b\357\334\275\272>\002\275\241\366Q\274U1\t\274\224\271\217<\307Z\310\275\236\r\205\273\275\331x;p\353s=j1\316=\n\303b\275\312\3630\276\037ao=A\313l\275\273\014\270<$u\204\275`\005\333\274\206\0261<\306\346\324\275R5p=p\362\034\275}\332?\275\0172q=\030\221D<\3302\211<\236\343\031\275\361j\371\274\0350\236=\024\223&=\240px=\313\322z\275\364\3101\275\266}\312\273\227\003\345<j\"?\275\317Y\332:\341^\005:=&x\275\032\313\r\275\361\300\027>\036e\307=\342/\021=\244\314}\275\205\307\344<\247\234\254<9l\341=\242\004\204\275%x\275=@\354\201\274\311\371\020:\323v\262=,E9=\031\251\002\275\262\3042<}\nZ\275\025\037\215=\'\305\217=i/7\274\306\016\315<\265\217\214<\217^\315\275@\245A<\004X\244;\301\322\344=7HA\275\032\034`=Y^*\274\313\243}<l\271\217:\'B\251;\3670\340=\241\226\250\270\263\232v\274\203\303\020>\254\016\224\274*S8\272+fq=\367\231\'\275\340\013\217=\375.\034\275\256\n\365=\251\tm=\360\245\344<\206\254=9V:\340<=C,<\324bg=\253\373\322\274\300\334\262=\322\016\323\274\260\332\202=\355\273\320=l\320\017=82\306\275\303\006\333<2E\276\275\301\215%>s%_\275\255\333\227=\267\224\002=C\351\2409V\302\007<@\353P\272\267a\212\275\354>\261<\217\325\200\275g\357\215\275\007\\\313\275~T\020\276\0065\260\275\025\352\r\275S3S<\206\251\233\275\237[\272=\364\211\236\275\317\330\233<\302\004\027\275D\346\200=P\024\313\274X\261\001=kS\215\275a@\303\2745G\213\275+\200\334<\304@\243=\243\244\374=?\2569=\"\013/<\334\223;=\030\270g=\315\274R\275Ws\322<\232\204\037=\033\375\303\275>\020\217\274so\217<\r\301c=\340\234\030>\0006l\275\276\307\017\273l\021\301\275\302v\303\275Nf\205=\"*&\275f\325\037\275\215\274\372\275\0219\263\274\210T\376<\345\306\363\275\215G\210<\257\226\322\2741\t\376\273=\247y\274h>#=\035\255\300=$\347L;\\P\277=\222\247H\275CM4=M\205\026>m\264i\275%\235\r>\260\244;=\226\224p\272Y\333\351\275\036\234\313\273\272s\007\276\232\014\231=\'\245\003>\325\254H\275{\004\223\274_\001s\275x\314~;\264\231\314\275Ud\013=\236z\261<x\356\232\275x\334\373=\037\325\343\272\324%\345\270\032\273\017=\3659\323=B\031V=@\016\373<\336\342\r\275\032\001\206\275\240\363\235\2751{\302<@+\023\275\334\200\340;\337\244\303<\310\247\324\275\362p%\273\361\3501\275d\337k\274\352\256\033<hR\002\2750\251R=\257\213W\275+\031\365<\376J\317=\350\034\250<F\341\244\275T\365\315=]@+=\267\204\253<m\325\005\276\340\004~<iD\346\274eW\211=\001\2353\2750\312\222<\312\013\225\273\236\010W\274[p*\275\357\221O=![\002;\353\211b=\244Y*<\036\331Q\272\354\341 =\316S\016\275}\203\267\274\177u\274\274\025\217Y\275\0229\211\274\374\256M\275X\037\252<\322\252\301\274\335\'\222=X\035\310\275\t\004\264\274Ix9\275\255\211\253=^T\243\274\244\2265\276\017\017\353=\271\374\t=o\216\215=Wl\212=a\324\256=\263\356\007\274\020R\017\275\355+\247=\250A\374;cQ\237\275\253V\246=\237\374\010=\021\300\337\2757\224\036=&)\351\274#\226\027\275%\273O;T\272\266\275\317\263\214\273\365\200O\274\346^\345:`7\257=\237I\204<~\227\013\275Y\201\246\275W;H=X\321\246<9wH;\304\2320\274\306\"\032=\267S\213<\3442\250\275k\320\323<\366\371A\275\306\304\370<\241\233\345\275n\315\364\275\034\376\306=\357\312\236\275<L~=\372\261\345<\253\247\264\274%\333R\2753\215D\275,\375y=\374\254\354;\001\247\t=\237\332\r\275\226A\347<\373\276P\274*\327\247=\340?\204\2751w\243\275\355\324\017\275M\217\236\274\340\334R:\275\253\177;T\206\006\275T\313\021\275{\251\367=J\013\247=l7\207\275\3542e\275\301`\253\275$Z\035\276\351\314@\275\321\265\270\275<R\260=\206\337y<:.\260=A\177\346\275J\232\002\274\352\037#\275\227?\020=\'B\267=\244\272\007\275\222w\277\275\205\321#\275\037\000\264\275\264\3507=KX\251<\0073`<\332\334\237\274\377\037\346\274e}\367\274-\370\217<\207\247d=m\331\001=%a\230\273\257A\002=\325\t$\276\261\377r\274}P\211=\2040s\274\317\242K=>\352R=H\247\256;,\371{<\240\3032=N\243\237\275<\251\266;\237\311\302;\3552\317<\377\261\013<\024d\335\274\320\216\t>\231\020\346=\022aK\275B\313\005\275\251=\311=\'`\006\275\373]5=\r\310\315\275\2224\227=q\362\226=\354,\314\272\240\331%=r\205\250\273u\'\036\274\351\315\270\275\326w/\275\206\275\016>[\032\366<\317]\374<\201U\215\275\335D\216=\310\277\253\274\230G\331\274\024\211\365<\235\360/\274\320\331\354;\343ZW;Nm\230\275\025\370}=\312\261\224\2759\226\022<\014-\351\274\013\234@=\375]\326;+\204c\275\233\026\353\273\350\231\206\275N\347,=j\367\317\274c\2453\274\230%\001\274\346\315\271=#\354\321=\301\001\306\275SE\223\275-\376\333\274h(\207\275\n\376\261\274?Bk;\304\nm=xm\036\275\234\027)\275\372\243\323\274\010d3=\257>\227=\241\274\367;w\277\227\275@\266\037=\016S\204\275\212\204A=]\355Z=\207bZ\274\260\315\250:\202#\245\274z\203\366<\277j\265=\314\266\r\275\341\036\004>\033gm=A\307\234\274\005\275\245=\205\360b\275\207?\001=t;\024<\300\"\201\275p\334\266<]K\267<\227\301\353<\343\360\201=\014\370\236\274.\031\333:\342I@=p\206w=Hv;\274\375V\317\274]\022\251\275\245\177\263\275\001\333\327\274Te\376\274l\270\263\275\201Z\211\275 \252\300\274\035\013<\275+\331\312\275\201\022;\274F\327Z>\2649\201\275\342\030\351\274\032\227=<\310\234=;jg\030\275\244\'\342\274\256\305\357=\034\240n=?\002c\275\377\325g=\336\006n<\211,\245\274\311\372\253<) \230;\367\240\334<\351\347\320\275\220\245\363\275\217\301\276<:X\306<\005j\010\273Nh7=7\261w\275^\205\234=\233\227\223<3)\222\275\3023\n\276\274\271\201<7E?\275rS3=\234\345Z\275\327\232B\275\002\330\n\276\200M\237=\3630\224=\270\177\025<\021\314\030=\201\313T\275\364\333\r\275\025v\357\274\367\205\354=3\367\373\274\256\222\220<>\343.\275\323>\275\275\357\267\264\271\020\340\260<Q\tN=\342\367`\275\3404]\275\252\264\003<\276\227c=g\027\021=6\226\200=\025\226\006\276\313\017\375=\221\032\237<7\201\332=X2e\275\300\274n=t \'=\324\307\361\275D\026\364:\346M\"\276\224\231\253=T\004\035>9\276E:\031\374U<\262:\246\275{\301\211\275\355d\215<\312z\322;\215\350\337<:\300\350\275\314Q/\275\331\325(\274N*\225=\327\026\222<\030k\007\275\224N\210\275\253\022\014\275\2334\261<{9~=]N\337\274m\r\304=\266w4=\\[\353\274\261\235\034;\004\324|\275\203\2347\275\335\354\342\273\034\363\253\275\205 \001>\376iE\275\250n\036\275\311\242\375<p0\265=\177\362\231\275.\357\222\271y\024\346<\261\251\331\275%\332\203=\003*\305\275\023\376!=U\322\220=\231\255-\275\3132\226\275\3328\227<\362\277\010\275\200\352n<Pl,\275\201\2727\275\031\231\022<<\236\276\275\335>\254\275\326\347\255=\220\244\t>\201q\265\274\252\372\236\2722\3349\274\326Wk\275p=\345\274.\006\334\274\023\'D\275\001\021}=\370\250\205=\300\251K\275\353\270\337=\033\n\"=$\211\001=\371J\233=6\375\216\275\354{\202=\313Hq\275E\307#<\274\350\235\275\326\\\251\274l\215#=C\257\325=#\004-\275<\351\241\274\'\302.=\027T\201=\372\007\274\275\376\n(=\\\220B<]\205e\275\323U2=\235\035%=\020\362\233<\330\017\333\275c\264\322\274\272h \275\330]\233=\305<3\275\263\256n=\"\302\032=a\016\017=w\022\363\274\225#\253=\312\212\272\275W\262\376;\220=\324\274\2238\n=v:\033\275\314\265\314=\227\2362=\031\331\375\274\224.\346\274\321\005\227=\220\264\006\275Je\206=9e\222\275\0073\026=\036?\271=3\355\\\275H\n\352=\364\200\267\274\377\273J=\226\210k=I\305\224=\271I\235\274 7!\275\212\007\266\274\334\324\303<E\204^\274\332\003\237=%;\262\274\235\332\004>\273\261 =\230\240\303\275De2=\304\346\005\276l\304\331\275\254|\341\274`\031c=\332j\226<\250\255\235=\304\024\305\275y\3239\275i\207\277\274\021/\235=\356\267\027=\226D\325\275\031\rJ<z\022%\272\027\350Q<\315\372\177\275r\200^\274o\254\'\275b\331\006=\306\217\325=\014\003\252\275\324\207\252=%\017\355\275\371\035\325\275\336\317\n=\000\352v=7\315\371\275\3431\354<\274W\243\275\227\267p\274\345\017\261\275!G&\275~fn\274\027\2402\274\031d\260\275\232\351\376=p\246\332\274P\023\233=V\311\226\274\266\264\227<\321\035\225\274\353\360~\275\361\277\202<=\330q\275Z\216\234=U\"\n=x\366\253\275\336\243\256=\2334(\274d\341\364=\037\377\243<\3267\212\274\312\025\330;\t\204\000=\246\207\002=\276\260\222:\255\222\024\275\022\317I\275\001h\212\274\314V\000\275-\276;>5\'\355\275\366Oh=z\371s\275I7\306<\271\016\235\274\221h\005\274q\004\004>pU\244\273PJ\204\275\037m\245\275\362\325>\275\003t\004\275\270\263\300\274\321\010\203\275\026\016\223\274\202\211^\275!\340\327\274\310\306\317\273\335\304s\275(yn=\314\301\023=<2\247=\n\331\201<\223\030\217=i\334W\275\370\374\334\274|q$=\313\333\030=\232\333\344\275\3578\241\275\307\3227\275\216\346\237\274=9\302\274|\301t\275i\031\235\274\353\237\001\275\001\257\021=RG\376<\215\232\201\275\303\353\265\274\246\367\241\274\216\375\340<\3508\305\275\030J\316\275t[\302\275\244\252\271\273\275K`\275\"S\233<\225\366\245\275\302\263\023\276o\033\235\275\004\035\260<\237\300\201=PS\213=\232Ba\275\354[\301\275I\346^\275\256g\007\275\033\347\243\275Yxq\274\237\204|\274\365\344\235=\346\367@=C\017!\274zy\036=l\363\316\272\327\361R=\374\256 =\232\300\177\275\212\373\343=o[)=\233\303\306\275G\025\213\275\336\367\006=\355\351\003<8\207i=\035\373\235\275Gp\034\275\354\376\375\274w\214S\275\007\007E\274\367\213\007>\226\230\230=m\032==gD\267\275\307oV=\013\310\230\2753\374U=u|\n\276\2223\304\275\004\2632:\033\026H\275Y\266!\272+\322A\275\035\372\306<\n\253\353=+6\030\276\266n\306=3j#\275\341>\356;\351s\213<V3\303\275\360\236\257\274\257\221\217\273u\215)\275(Pj=\331!\336\274\336\235\377<3\000\211=W\310\210=\256\017\\=\227r\201\275P9\207<*\013\361:/\315\276\274\376\026q=\266B{\275\205\263P=-\r\302<\244C\r=`\027\240\274\346\021$<\275Uq\275_\360;\275J\030q\275\376)\265\275f\0321=\346\211[=\345\347\261\275\227a><\311\263u\274\"\322\207\273\354s\020=\177\350\213\2741\000,\2752\376\321\274s<\361\274\267\351\212\275\364\323\007\274J\344\014\275\333\337\330\275\313\205\322\2744d\001=q\366\233=\243+l\275G\000=\275\273\357\357\274r\033\003=!\377\257\274@\272\025=\305\031G:H\340x\275\007\377\t\275\253\004{=\027\364\304;\342<\031=\361\270@=\005q\373\274 \314\305\275&$\007\276\213\242~=/\374\020<@\230\220=\2259\260=\024<]=_W\353<\376\037_<<K\321=\035AC=\204u*\275H\322\334<\337%\213=\346\225\342\275\3441r\275W\313\212\275q\272~<4Y\343=\024\276\025<o\365\317<\340\216\"\275\222\321\250=\252\207\'=\333\020\305<\271\257m=\002\315\354\275!\260\014\275\0048\257:\334\355\201\275J\037\033\275\354^\205<h\331\352\275\306h\340\274:D\216=/\341I=\232;L\275j\266\263\275\366;\026\273J\271\214\274\037\244O\275$n\010=s\264\022=h\324\361<G\216\027<\277C\320\274\372o\241;\345b\206=\265A\231=Y\212\315\275\215\331\334\274\222\343\247= &\260\274\005\261\274\275\311\035\010;\325b\302\275\0220\251\274\351-)<~\244\272<\345s%=\345y\023\276Xi$=i|\005=*\202)\275=\000,\273\312\325\001\2751n\301\275\204:\017\276\330:\227=T\357w\275\244I_\275\350\316>=k\373b\275\322r\031=\240_\331<7\t\031\276\214 \246=\276\275-=\263\"\364\275\251\002\372\274\221\n\221<\016]n\275\346uG\275\263\025\262\274\265q\367;q\345\300=w\315\236\275\345\255\315=\3011^=\250\306\325=6<2\275\332\323\350=\211\272U<X\323a=\226\260\005=Qi\'\276\217\346R=\010FB\275\267O\237\273\234\330\017>#\036\252\275\235^U<\033\265 =\375[\r\275v$7\275\027\323s\275=s@\275#\002\224\275/\360\203\275\275\373\307<\230\311\004=~=\342\275\354q\237=\201\026\366=\353\253\000\273=\033t\275\337#u:\262\255r\275\276@\340<\321\255\203;\304\373\203\271\267\251\036\276n\231\026=RkG\275\202\217\347;\177\257\262<c\370,<d3\255\275\270r\220=\220\211\263<\360\321(<?Lq\2750\256P=\375b\216=7\373#=To\326<G\003\325\275\3550\344;\204\235\000>\tN\024\275\334G\216\274{\2116\274I\356\322=\314\305\030>B^G\271\235\025\253\275\262!h\275A\347\223\275\305\320\201<\324\177m\275|M\030\274\236r>\275\227\262\353<\374\356\n\275d\261n<\313f\376\274rCq\274\232\2541\276\370\364\210\2755]\330\275\372\366\306\274\230\3441\275\316\240\024=lF\210\272\214\205:\275\3057e<\351#\235\275t|\244<\'Q\347\274\016\341\331=X\212,>\366\260\036\273\353\255\367<\206G\006\274\\,r=\233\333\257\274}.\325<B\007\026\275\344\007\340<\312s\024=}\263\202;\313\353\217\274E\337\320\275\034|\353\275\353U\357\274\243D\326\274\252\341\240\275C\340\242\274_\345\201\275\240\321\327\271l\232\207\275\244|\310<\3329\217\274\226\361.\274k$\207<\207\244\225=\022\353w\275G\300\221\274~\215\323=\362G\334\275@i\266=\322\321l=>m6=\326\202\347\275\276\351\004\2751\017\353=(\226\257\275`\242\354\275%\3375\275\311\353\014\275\024T?=H\003\001\275c\217\311\275x\270\037=\231\\-<\264\375\267\2742\247\374<)\272\351=\365\025\303=\377P;\275$\214\272<\312/\212\275\220\035\202=\277#\342\272\242\330\353\274Lh\230<w\230\355\275\357I\035\275-\035V\2757\371|\275\211v\231\274|\234\214\274\325|\217\274dxZ=Z\314\200=\235I6={\324\351;\2241\204\274\305G\205=\022\037y\274\0322\333<\007\342\036\275\371\033\023\276\270\025\032\273\023\205&\275\206\271\276=\342\010\023=\334\351O\275\021\2753\274\027%\353<\202\332\211\275\002P^=\260\251\256\2747A]\273\204v\301\275\\4\276= \337\n<O\327{\275\n[g=x\\^=\\\023\r\276+\246h\275\204\222;\275)\317\226\275\003#\021>]\253f=kB\010\274\336\245\\\274\262\202\205=\363d/<wY\r=\2015\346\275\276\342\266\274\313,:\275\251\272K=LU/=\217l\334\274a\335\030<QY\275<\3706p\275un\332\275\324\246\375\275\030M\234<Us\236<\034\244\210\273\274Z\265=\254\276#>Z\350\335\274\245{2\275\035\240Y\274>\263\355;\201s\225\275\244J\211<`\262\013\276\330Y\022=\314\241\006\274l5\037<\313-9>\243s\016=\315\367\247\274z\205E\274XW;=\22531\275\205_\312\274\371\217\211\274=\215\221\273\3708v\275\003\312\375;\005Z\311=\036`\323\275\377\363\026\275\214\241\202\273A\324\325\275H\273\222\275\343\271v;\2518\223=\267\352\311<\225\266\245=c\003\225\275\230\2563\275\036\351\230\275\350%(\275{\360\334\275\202\267t=\377I\025\273\361\303\317=\236\277\301;f\355\243\271\202\317s\275U\243\r=\014 \204=\365\334\376<A{\245=\\\202\021\273{u\245<\367~\334=.v(=m{\310<\260\365\205=\371S:\275\004\317\037\275~.O=\027 \352\2754\215V;\230\376\260\275i\3604=2\211\264;~\016\007=%\332\310=zh\t=)\007\352\274\036\032\200\275\303\017P<\360\326\320\275\327]\330=\332\302\233=\311\t2\273>\227\237=\311\373\276\275\rq\036>\334\253\313<oI\323=\313\277\356;\232\377\200\274\227T\301<\354\315\376\274<\211\205\275g\244\032\275\'\331\241\275\r4\t\275\17723\275\034\251\221\275\365\273\343<>]\274<\203\307\226\275Of@\275\211\353\274<\255Ko\275\265\373\036=\372w\300\275\305\302u\275:W\022\275\263#-=Z\217\331\275\0066\226<S>\312<\201\262\207\275\360\374Q<\022\265J\274\342\223\327\275\241+\327<N\321\035=\027\373\211\274\202\036(=m\361\275\274]\330v=\005\351)\275L\",\275\313\267\233\275N\013$;\337\337\204=\251\337\035:\205\354\254\274\032N\274\275\343\375`\275\373\"\013=\177\256\355<l\307\310=!\306\227<\250\206\327;>/\003\274\007U&>\372\231D\275T\303\227=\342C$=M\311\203\275\243\016\307=\332\371V=\003\214\333<\363J\250<fx\242<\251`\335\275\311\013I<\325l\340\273,\205\006\276\243x]\274\022_\317\274:\2147:\230\313\"\275\342j#\275f\317\006=+\3717=\377qm=\032|Y<g\302_\275t\2375=W[&\274\310L\245\273=\213f=`h\244\275\312\373\231=`\316\005=G\331\352<\017o\240<\233\271\030\275\375\026\342\275y\267\313<w\017\346=h+\200=\265\271\003:\256\205#\276\010\037\345\275\336\261\026\276\360\265\033\275Z\214\265\273\237\214\275=&\276\035<(\2730=\305\005\321\274\272\226U\275\233\201\277<\277\nm\275[5\303=q8(\274\231\204Q\275!#\036\276\223\302\301=\321\253\215\275>\321\262=\007e\207=b\371\362<\315\353\307<\3563\036=5\311\r=\371\333\247=\303\341\361\274\030\007\177<\240\371E=a\234K<N\267\017>\252\312\207\275\333\n\354\274\253\315\256=Y\260\346<(\253\275<\305h\r<\303{x\275\233f\022>\201I\177\275\362\376L=\\\006\034=\255a\212<y\322G\275\263}$\275rE\322\275\253\233%\274\275\207\260<\241C\267<\366\037\224<\313z\007=\314\314\227\275%{[=\216e\004\276\215\036\256\274 \377\000\276\025\310\027\274\224E\324<h\353\370\273\001\252\031\276\361`\362=Y&\001>\205B\217\275?\277\2339\253P\243\274ZJ\200<N\007\241\275\212\222\206\275\247\266\250\273<\301\232<=\324\361=\031\020%\276\226\305\215\275\001mp=\207v\200\273^@d=\363\204\001\2759\353\r\275\271\026\007\275\223\003\214\274\246C\037>\276R\262<a\214\211=g\276\010>\220[3=\233\032\227=v\310\022\275d\233\n<\034\014$\275\305\275\211\275\254\273}=\334\334)>\212\372\221=\357?4=\014!V\275$I\031=\354\252\262<\343!\262\275\374\307\235\275\343?E=1\257H<\211\357\204=\352\2118=e\277\221<\023\326\251\275I\211o\275=\244\254\274%R\014=&f`<@\214w;\005F\315\271\333\217J\275\304\037\220<\271\277C=\217\0176;\330G\276\275\337D\321=\337i\255\274\370q\\\275\241\203\"\273l\236U\273\2005\324\273\350\221\200\275\002i\342;\'\r\267=`Aq\275\246\323\002>\317\330\000=1f\016=\2528U=\206p\020;f_\004=\2238\307<\213\342\322=\3025\\\275\230\341\200=x\022j=!\026\326\274Cg\350\275\240\303\350<A\024\r=yjz\275)O\215=G\017\365\274\336\317]=t\204@;\265Y9\275\331~\000\274\034\304\273=l\270\232\274m\2132\275\215Z\205\273Yx\207\275\354\245\375<\032-\211;\200]B\275\240qE<k\252\236=l\351h\275F\267\025\275\243T\016=G<\317\274@|\232=#\236\265\275\351\020\037\2744|J<\025\217\347=+\324I<\005]\334=\026\357\306;sB\017=\216\017\200\274\221\361\034>\302\336\227;\263\306 =lz\007\274@\026\376\274\217J\025\275/6)\275\233\201D\274\366\021\252\274 \004 <\035\213O=s\337\222=|Z\374\275\345\230\203\274R)\270<\020R\203\275\205%\001\276\364|\034>Fs\255\274$\"G\275\332\n\370\273\000\321\300\275\"\006\374\274Q\372\200=\255\264\300<hcG\275\335x\002<R~\2269\016\221\275=\246\022l\274\017\276n=N$\203<\332\332o=\311\016\205<\325\236\004=\\&\266\274m\035\t>\273\224^=GCE\275\354n\202\275\317\000\312=\325\272\003\274y\315\004\276\217\352\355\274\266\014\261\274\341\327.=SH\244\274\303\000\262\274\227\331\205=R2*\2756\362\014=\001\026\255\275-KN=\\\253=\273\326_t=K61\275\376\312\321<0\014\260<t]\201=\272\016|\275\270\315\205\274\207l\261=\273@\302\275\325mI<\207\231P\274\204\325j<\334\344\n\275\212c\255\275[c1\274\001\244\010>\003\217=\273%\214\221<!\367\006\275y$\302<t\005F\275\267\304\317\275A\206\264\273|%Q=F\217\000\276\341F\323=\256\002\';X\322Y=z$H<\242\003\262\275\002\262\023=\353\267_\275\245\\\254\2753\335c\275,\305C=r\243d\275\2334%\273\016\010\007<\370tU=\340\001)<\332\264:\275a\r\225<\347\263\300\275\213\303W\275D\002D=\370P\341<\235\221 =\214\267\r\275\3713\233\274\245\272u=\002\203\232=\2208t\275A!0\274\205O\316\275?\023G=\277.|\275I\343\277\2759h\224\2757\377\247<\311^\213=V=\337\275\232\2475=q\003\257=\231\305\325\272\037mX=\223\256\361\274\036G\034\275\'\265\n>?\000\332\274\2372\275\275\343\351\001=\340EB\2750\274d\275\253\006\034\273\377\342\026\274s\211\254\275v\337N\275\\,\271\274\2460M\275cW\271\275\265\314\325=\245\005\373\274j\254N<\351O0\275\332.\t<\207\321\224\275\000\316\243\274[\321:\275\332\375\r\275\370 .\275\375@d=\253\374\321<I\255&=\2049\262=\301\244\372\273\032\003L\274?7&<#\261\276<\003:\273\275\232\211\255\275Qp5;S3\032\276;\364\221=\350\234\000>\362/\265;ors\275\265\222O:\264rJ\275\354\360\364<yu\227=\204\336{<\333\037\225;\307\232\377=\021\027\332\275o/<=\032N\337=\331\375\032=\017\277\240\275\005\004{\275\203\316\010=\224\243;\275\361B\347<1 \250\275f\001\346<\261N\013\274\255\254\005>j\212\231=\035\267\220\273e\222\254\275?\304\356=.\373S\274@\3068\275\035&\304\274\244\261\200\274\"M\366\274\'\271\352=\207\313\214\275\325lz=; *\275\201|\224;\003\000\237\275\363\'\377\275hM7\275LD\216\274\360\367\n<\263\346\330;\225\002\005=\264~#=?\316\"=X\277$=8{z\275;,\274=p=U=\ty3\275\017\264\363\275M\016\332;\022\231\345=\336N\227\275\245\330\\=\'ah=K4w=\2105\211\273\210\010\022\275\231\362\320\275*5\356;\324XP\275?\3718\274\253\223\001\275\366\033\340\274\023\334M=t\323\005\276\210,\301\274\317\"G\274\310|Z\274\246&\211<\342\2065<\2215\320\275\330\234\251\275ZC}\275\254\362\302\273\312\345\202\275\377y\214;O}\276\274\337\267\377\274U\337\200;v\226\\\274\366g\263=4\246\003>\374\351\334=\260\273\206=E\247\235\275\301dX\275\251\211\035\274\375X\244=O\334\n<\255gL\274\211\300\037>\3219\236\275\212\376\211\275i\335\250\274\256\321\017\275B\334\026\275\220\330\031=z\212g\275\316\344\036\274o\300\334\275\243\\v\274\305\244>=Vp\276\274\027m\272=RNe=\321\003r\275\263\016\235\275\020\221\306\274O\3476\276\202\357\240=\235\333==\301%d=\250\203\327<\204\335\272\274C\332\265\274\211\002h\274h3I\275y{\307=\337\327\340<\371o\244\274\264\305\3718\317\037\316\274\021=\"=z+,=\313\376\362\275\324\210\023\274^\275\261\275m\246\237=\232-m\274\014g\034= \002\033\275\273L\352\274\006`\276:\354\032E=\265\330x=\201\366\271\275\274:\320;\231\260\202\274lm\246=\364r \275\032\201\246;\225u\224\274\376>\027>r\031\200\275\245\323\000\275\362\336\303\274\261\303\377<\327\014\275<\245\260\270\274\210(\343\275\217am=L\272\270\275\374\362\344\275\027\r\001\274A\347\255\275\231R\277=5\320\262=\247\270\004=OZ\213<\005\353\031\275eF?=\n\272\372\275\224\246\235;\324K\370<FQe\275\273\215\356<9f1=\364\225\314\275sz\036\274\311\305]=q\302R\267\306\n\257\275\\\244;<BS#\274\337\201\035\275k_u\274e\031\265=/0\'=\257\003b\275_3\335=\210\254\027=\310\031\200=\'\263*=NJ\020=N\026\330\274m<\354=\226+\302;\266\235\313=\351\312?<5G\365=\251I\320<h\3124\275b?0\275\277\306F=\325\242\323\274\222\316\267\274d~2\276\323\3374<\272\223$\275\'O\232\274\274{\221=\326A\"\275\201\260\004\275+O\325<\305\334\324<g;\246\275\315\263\237\275\364\211\277\274\022\220\335\274I\006\273=\002\277\253<i\003\337;i|\244\275\344\205\362<\021\'\375\274\337\025\356\275mG\335\273\240\352K=\244\227\350<\2123Q<PW\205\275\034`\320:\320\330\036=\245R\005>vB_\275\025V\344\275\013;\215<\217\356\003\276ty1=t\374\265\275\021\274\302\2747\244L\275M\261\262\275j\030\323\275\277\\\013\274b \207<v\005\344=\266\260\273<\315B=\275^\221\007=\377\221A=F\306Q\275\366\375\232\274B/\036\275>F\335\275;\313c=\214g\177\275\003\350\320=<MR=\243u\013=4M\347\275\331\n\363\275o\365\036\275]\177:=\300\256\222=,_k<\314L\330\2752\003&\275~\313\371;\303\315O\273\003ob;*F\322<\213\354a<8\027\335:\177A\361<\326;\252\275:\265\241<\322\204\320\274\201\336U\274q\247\346<g\361\240\274\tb\223\275\231\316\205=\323\265\242<,g8=\034+\033\275\004nh;\364E\327\274\002Nf=\250\240\267\275k8(\276f^\221=\356 \215\275\336\247!;<*\200=\240\362\004=\224\302w\275!\226*\274\001\270\346=~\336\177\275\'N|\274\207\245\212\274\350\350\366<\322\332\221=\335|\362\275\321#\233=\201\254\345\275Z\226\272<\266\327[=`Y\240=\237\271\200\274be\262\273D\273\017=3\375;=\"7\246=\266\016\337\275\0207\036<XB\347\274C\030\332\274\341\036\262<\347h\031<\340\005\372\274=\322\264\275I\227\035=>\271\214=\030M\023\275N\354\343;\210%\303\275\\\262$=\004\265\024\276\320<\'=\030\\6=\344\202\225\274\321\276C\275\273\361\237\275\225\262`=\311=^<\356>\307<n\243\300\2748C\223\275\327\340\274\275\215\313D\275@\377\020\276/\007\003<\271\260\263\273C\346\235=\350b\036\275\354I\222<\314w\213=\311\t\314;X\204\212;\302N\r\275\033?\206=\250\332\350\274\210M\251\274\326 \025\275\245.\301<cS\024\274\3115U\275\345\271\006\275\014T\332<\243~\321\274\034\322\221<\304M\033\275\\\013\307\274|\307\026\275\\b\200\275\3061\003=\007\224\206\275\223\241N\275\300\352\t\2742\033L<+[\326<#\216\232\275\310\262\244\275,\020\004\2747\016\240\274\201\355\311=\342\364i;\274 A\275\257R\036\275\351\272\242=d\370\254\275\027v\301\273\363\306\207=V\212\n=\202\260\010>\301\037\327\275\247^V=\370\210[<A:l\275\375\220\341=&R<=\022>\306<\244.\245\274\361\\\227=\2266\363\275\225\364\245=\370\026\330\274\246\034n=\022\342U=\034\314\354\274\232\370\223=-e\001\274(\311\273:i?\216\274\004\227y=1\326\214<\023\253\034\275\024X\321=\311\306\364\275\311\241\177=\330\377\212:\000\247S=\200\264A\2748m\023=?w\363<\377(\305=\242\232\276<81\324\275,\261\205=T\366\320\275\363\365=\275\211\264N<5\200\301\275\023\215\254=\324p>\272\227\217\356<*\231g\274\367\314\027<\005\322\226\2759n6\276\312\245\"={\204\374\275B\271\\\274\276P\341\274\237\203I=\300N\007=\327\200\377<\016\023\\=z\324\232\275\021\211\276=\014FU=b\206\201\273\332Pt\275\326B5\276\207\035\203\273\007\207l<)\313X<4\002W=\\u\222\275\205\2461=\334\335\003<\031\244\004\276xd\230\275H\215\361\275\021\311\346<D\330\003=\377\320\350=\264\216.\272R\021\332\275\266\017\241:\275\361i=\270\n\204=\375\270\217=\304\334\217\275\025m\240\275%%x<\333\336\240<j\320\033\2749\234(<\320r\005\275\244xQ=\307\203K\275\007K\254==\301\007=i\321\234=\003\330\313\274\336/\321\275\314\266\221\274\213\205\351\274\373\021\300\275\361\r\244\275\002Eg=1/\352\274\302\002\213=C5\213=\205\220\346=\263\337\232<\nB\246\275\350\"\271<\n{$\276\200\372\223\274\251\204\250\275\2371\211=\036\330\026\274\362`\200<\361\254\001\274\234\231\250=\310\200\253=@\016\'\275\253\n5=\317t\"\275H\237,\272\320\333\005=\331\262\234=\317\327\310=\312o\r=\335yW=\377m\350=\274\343\251\273P\375\346=}\300\023=Ls\262=\314\334\371<(\215G\275\036{\307<\353\307\266\274\326\377\245;=b\347\274\343\240m=\375|\036\275tj\020\276\223RU\273\337\333\013\276\307\215\354\274\240\346\217\275\305\3448\272\370\360%>\325\337)=S\002\363<\222\002\260\275\326\205\240\275\212\233\'==\023\367\274\306\353\327\2749\376\303\275o\216\020=\246\357\320\274\213N\301\274\306\232\256\275`\253&>\363E\001>;\215\211<\263\3030<\217V\024\275\255\335\026\275\253\314\256\274\206\252\267\274\325!\355=\310\252T<\216\272\207\274\021\323\213:$\251\333\274\257\314\373\274\256\324]=a-\020>c\253\357==\343B\275\251\247 =\262!\004=\347\221\337=\\\027R=\355R-\275\224\307\243=\217\303\003;\322\322c<\210\305\251=\242\250\262<\356%X\275\257\200\246\274\032\207\222<\352\265\256\273\323&\001=\244H\253;\205\026)>\343\350\224=x\226\246<\267\'\264= h{=z\361\265\275\244{\201=\301X\207\274zd\311\275\347\216o\275\305\025>\274S\217\212<\201\337\277<8\274\315\275\315\265\212<r\014\016<\335\343D\275x\n8>)\023\312=\227\272G<\302\334\364:\003\312\242;\220%\354;\217h\370\273\372\233\272<\274f\216<\310;\263<\303?\316<Mg\016\274`\022\r\275$\223\325\274UE\263\275\027*\313=\002\005\250=\352D\337\274\024\2718;\276\221\026\274H\303\347=\324YT\274\326\215\302;,\017*\273\347\236\313\274\352\373n=\032bm\274\315\254\250<\366\357.\274\2339\343<\'xl\275\016\021\332\275KK\206\275\3673\253<Tk\253\274\253\247\261;\362\332\331\274f\342|<#\007\211\275C\377:\275+j\325<\003Nj<\271,\364;1\273\253\273a\336\211=N\360\001=\233\366\264\275i\\?>g\332\004;I\324\204\275\203N\322\275>\302)\273\233?\211=\371\340\212\274f\224\013\275\234\265\257<\342WE\275\261{?\273\032\300\213=V\017\243\274\335\'d\274\006\2245\275?}\255<\231\335d\275\010\340\354\274M\201\200=\225:\377<\364M\n\275\371\310a\275b\356\255=\265\013\004\275\305\263\277<\024F\022\275\310\276\315;\244\245]:\"\314\315:\003\306@\275\363\357\274\272\027\n\244\275\022\'\323\274\225d\236\273`\005d;)*5=*!\210=BH\325<\213\217\202\275YF\204=;\322\331\275\010\250\212=\215\354\373=\314!\225=@\373y\275\204\227\261:\034\340N=n\037\347<\025\224\327=\241\264\032\275B\323\216=\247\324\216\275\t\376\037\275\337{\203\275\256\227%=\325\303b=\236o\320\274\034\364P=_V\007\274\304\262$\2751j\025\276t\235l\276\266D\216=\314d#\275\376\032\232\275?\344\255\275p\261/=\234\205\257\272\230\336\274<\206\277\324\273b\317\030\275\224\002$<t\276\005\274\220\275\001\275\n\327\024;\363\022g=\251\024W\275\252\207\235=\240H\215;\365\317W\275\272I\330\275\231sG;@KV=\214;\000\275f\2650\275\300\033\363\275\375\024\372<\370\255a<\225\036\215\274\357\255*:\3163 \275\364\344}=\213,U\275\347\236\025=\244\314\206\275\260\233\r\275\351\346\305=\373\214\037=\323\177\307\274\023|\016\275\221\226\213=N\357\251\275\314U1\275\263\330\262<\253T\370=\266o:=3\220}=\007I\333\275\355\357\014\274\270\254\027=\204\372/=\235\017|=m+\272=k\001)\274\377\314\270=1\331\377<\241\362\273=\240<\234<,\017\302=\361g\247\274Dg\244\273\032&\204=\270\0251\275\372J\232<\221Z\237\275#\004\233\275lq\242\275N[`=\262\2247\276\337^6\275Qc\014\276\000\323\032\274C\2704=\0317\253=o\311\261<\016\007g=h\257\246=sO\270=\'\254\276=\264\355\245\275ga\222\275\352\274U<\352\370\266\274\374HP;[EJ=\021`,=\205%\006>&\377\205=y\036\205\275\377\213\266\271OLA\275Z\031Z<\262\244\364<\254\344Q\274\321\350_< \340,<\021\373\242=\351>\373\274E\376l\2741x\323<J:I\275\273\367V\275h\301\177\274\326\372\024<*\240\006=o87\275\302>\"\274|\256\217\274\345\023\372=b\'?\274\327\035\250\275\327\323Z;\216I\303\275r\232\036\275\201\254/<\224f\277=\270\274E\275\2240\'=\271`\242\275\240\365S\275C\001\367<o\345\240\274\2041\353\274\030w\337\274V\273\310=\377\005\201\274\261\203%=8\322w<D%\336< \032\237=\335\364\332\275l\024\364=\213\205\336\274\245I\224;\267\240\245=U \233\275*\371\260=\326k\361\273\331e\177\275\013T\262\275\327\027\254=]\031\266=#!\237\273\246\360{=e\202\307\275\230\362\340\274\261\264w;\273[\207=7L\217=\354\323\247=\\\220q<\253Q\206=\260\006\224=\343\031\274\274\017\243=\275\177\010x=\336\004\323\274\216\031\000\276\364DO<\277/\332<\316\204\223=\232mD=\312\276\205=\247R\033\276k\272@\275\021\325\316<\336\357Q\275\231Q\240\275Z\352\312\275\036<\372<yz \275\313\211W=\023ph;i\262\304=\344\2107=\322!\376\274\036\333\346\274\304\307_\275\371\327\226\275p\334s=\t\341|\2744\220\321<\217\266\265<\350\215\2539\250\364<<\274aY=\006\364\r\276:y\322=^\237@\275\245\262\244=\205\"\215;B\020\327\274\207\304\031\276\225`\240=\260I\366<\366N\n<V\300\355\275\210{\n\276\323C\257\275|\301O=0=\327<[\313X\275E\361;=\354\337\264=\237\343Q=\004\201\n=Y\n4=\265\253\005\275\374)\004=ijd=\363~\212\273\346\255\275=\237\010\250\275s\327K;-:\265\273\302)U\275v\210\014<\034\220\017<4\245\023=@_4\275\002\252\312<\231\336#\274\320\261\212=]\275\205=YB\265\2759\267\265\275\316A9\274\264\212\317\2755\365\354\274M\350?=\211E:\275*\304\203\274[@\017<\236\372\025\276\"3\324\274R\373\210\274DF5\275\346\345 \275k<\211\275;f.=\'\202x\275\352\227\333\275\225r\216<\231\217\353\275\266d \275\206\231\273<[\215.\274\341\375H;\366\272\345\274\203&\325<\325B\235<y\372\006=t\2413\275\r\301\211=\305\364\251\274b\324\256\2756$#\275\321\016\362\275+}\014;\240\031\213=\206%\021\275\034\333!=\237D\320\275B\242\250=\217\321\035>\210\224\010\275\335\202\367\274e\307\250\274\367F\343\274\206C\231\275q\260{\275Z,\246=\307+\233\274\321\311\266\274^\262C<\340\2027<\255\324\236=\322\353\023>KY\314\275\025\0345==X\341\274\217\272\375=[\004d\273\375O\240\275\335\271\234=\314\253\201=J\273*\275\\\204x\275\227\256\n\276t\023\223<D\234\335\274\200\210\335\275a\340\221\274i5\257=\301\036P<2C\203\274\026\322\203<\226+\247=\023\352u\275{n\033\275R\222\214\274\327\262\313<\365,F\275\342\254\r\275)\203\031=\022v\"\275\020\245\332\273_\220z\275\203 l\275\2016q\274\270\226\374<\271/b=\331\017\267</\021\005\2757\\\272\2753-\326=#\355\325\275w\340\365<\312\220\274<\006Vt=\267pl\275\003L\300\275\217\264\224\273HC\331=F\302\2019\301\017\022=\327\006w=\301\3167\275\250<N\274q_\322\273\"@\317=<\317\037\276Lr\210<\354\314\230\275_\210\243\275\177\212\313\274\\\rz<\272rH<\034\177\016=O\232#>\002\243g=\242\224\226=\354\274#\275\230\236\350\275\244\217\247\275\210\237\210\275\213\016V=u\301W\275\326e\313\273\377\010\253\275\327\210\244\275`\260\r\274L\274\207\274&Q\023\275\177\2757=\332;\324\2745\342G\275\266x\310<\276u\273=\352:[=\341\275\003=\304\2469=j\241\205\2759]\205\275O\324\342=\r\347z=9\2145=\365\244c<\003\335G\275\262 \"<\225\2303\274\231eH\274\204\243\243<m\351\245=\020\231\346\274\237\031\030\272?\025S;\205\262\">}\002\323<\020\236\220<\253U\232\275\254\201\213<\274\232\000\273\030\220\333\274\215D\211<\322\320\306:\367e\340<\326\214\373:\033*\233\274\337\353\r=\312\327l<\322v$\275g\265-=\037\321\236\275v\tV<\227\277<\276@\274\322\274\255pU=hT\200;\233\260\242;\371\013\336<\003}\317=o>\023>\217\034\'\275\354\220X=\rr\274\275\206\314\256\275\206a\325=\327!D<x<\364;\022\370W=\272\203\031\274\335\303\001=\244\351\030=\273D\271\275\271\313\376;\010\325\352<`\311\204\274\346\3721\275\243P\267\275\310O\267\274=\336\014>\370\374R\275i\325k\275\375\271L\275\032\273B>js=;\232\314\205\274s\036v\275\244\236\035\275\300:\211\274\300\"|\275\226\314\t<R\203\345<\330>\267<\262b\377\274\207Y\265=>V\201;\344\335\337\275\245x\347\275)\271\026\275\236\202\230;R\033\271\275M\247\203\275\237\316t=\253\023\007;\227D\000\274:\363i=T\307\226=\277\222\320<|\242X\275\346j\004>v2\345\274\014\275\203\275U\n\204=h\277\223=/\353\335=4s\302\275\363\253\242<U\036\2479L{]=\272J\373=l\017t\275\034\246\323<\3406\246<_Ja\275\371Q\204\275\326\234>\2764\217\332\274\347\211z\275\220up\2758\346 \275\022\025\254\275\016\331\356<\341\010\206\2754\333\237<\362\364\201\275\354\243n\275$\216\267<J0\376<\337\034\230<\340\303X=\276D\341\275\\\254\213=BVt\275Y\223\333<\\\311\004=\201-\206=\034L\305\275{9\246=\367\0214=\347\002\213\275A\264\307\275g\245\243\274\350)\026\275\003{\261\274|(A\275\005\237l<\220\257\203=JwQ=~\222C\275\231\177c\275+s\254\274\331F\035=ze1;lU]\274\316\277\"\274\374*\t=\310\261U<\313\330\241;y\333\265\275\027\3032\2757\270,<\300\313F\275\214\335\200\274Tm\256==A7=h\033\216\274\375\235\204=\214\352T<%\216\003>\276\376<=M\216\022\274gd\201\275^s\n\275\207G\204\274\'\306\272;;\326\331=\356\323=<S?j\275\321\275m=\\G\022\2745\251\213\274\355\214\252<\032z\006>\331z$\275\362>\020\276\322\211\003\275\204\324\216\275\347B\345=\003\341\344\275\351$W=\335\346\217\274\006m\206<\023\033t<\245*\347=ZZ\312\271\016\352\264\275\363b+=1\365s\275\034K\210;\231Y\203\275\322_\273\275\205j\206=J0\r>^C\256\274\307\321\242\2753\272\212=\216\035\262\275\036\200\371<Z\3316\2731\037\313<\376\255P<z\241\301=)\335^=\3460\342=\356\265\265=\216!\024\275.\347\251\275Q\223\014\276\201L\241<9\311\264<\225=T=\353z9=\037}\206\274\343D@\275+\265\n=}\206\357;\007P\365<7v\016\275\210\366\320\275v\024\245=\352(\304\2756\022.=u\372*\274\034\220\302\274BqA\275\000\353\035\274\001\235%\275\376\006;=Z&\240\275\232\003>=&w\207\275\217f\"=\201\025\216\274\230\236\316<\225\245\350\275W\363\002\275*x\000\276\317Q\214=\276\315\325;*\004\341\275\261\336\352\274\372\305\033\275:\033$=\351I\373\275\334*2=\002:\372<\257\n\177\274\376_f=5h\027\275Pm\214\275v\373\367=\350\243i=\370\373^=\241\244\230\275\032[\274=\023?\213=F\375\256<\203D\017=TFG\273~\227\\;8^7\274\251`\240\273\255 D\274Q\330\225<.\347\377\274M\213\005\276k\001\036\274\212\030-=\352\365\327<\3110\256\2748\2611>\355\013\363\272+\'\242=\031\204\225\275\005\253\306=\374n\237=\300\342\334<\226\300\004=\250\254\274\275U\373Q<\001\221\314=\254\004t=\223Y\016;})\025=8\317M=4\340-\275;\255D\275_\304\374\275\324\376D<\232!2=\351\275M\275`\202N=)\252(= \344\031=j\016\200\274\375\234_\275vG\311<V\353\034\275n9U\275D\246\261\275\016c\264<7==\2747kM=n\027\365\274\352\232!>\341\232i=\315\332\265=k{\221=`\267\326<#\224\217;\030\213\034\2743,\"\275\032I\250=\357\"<\275Bm\004>\213\265v=j&\022<\242\247\326\274\244\372 =n\177\210:\256\245\272<\331\243A=\306&\255\273J\351\235=\210E\007\275\371\032\306=\304\007\376\275\253\326.<\250A\t:[\205Z\275x\254\000\274\361\346\335=\375?m\275\214\370P\275\n5\022=D\226i\274K\215\211:P\177\267=\306\364\347\274V_};\203\341I\274U\332z\275lx\021\275\350/\r\275_\364\\\275\246/\215<)\220i\274\000\246\241=u\250d\275\304\220\233=\206\265\217=\212\204\207<\211\352\277=\204\267\311=\322(\206\275\0248\n\274z{\302;\255Q\343\275?\034Z\275\340\361\246\273\307Y;\275\221\370\203\275\360\013\342=QRY=h\366\321\275I\317\177\273\301\252^=\004#\202=\0012\334=\234\301\315<\237\327\367\273\016\206~<\177\006R\273\031\321\001\275\344\364\216;\360\274\316=\000]\347\275\256\004I=@S==\2616\240\274X\236\201=\342\212\202=1\374\336;h\224\254\274\245O.=\240\262\261=\344\314K<\246\004R=*\024\264\274\306P\267<\354\317\233<\207\275\237\274p\037\252=\324\242\343\275Mtd\274\346\347\221=\222.\326<\302\213\370\274\2652\353\275c{\352\275\222\013\312=\257\234\207=(\262\001\275In\177\273\255vu\274\246\264\311\274\326\360\312=\365\001\267<\370\003\017\275ou\315\274r\242\035=\311\372\264\275\370\020(\2754\355*=\336kk\272\347@\225\274p\026\004>\247\261\341\274>\335\375<\332\234\247\275\301\267\004=\314\035\331=B\317\245\273s\246+=\322\316\317=2\215E\275\312\325\004\274k[\201\275\263\207:=\227\344\253=\360E\027\2753\275I;%\344%=c\307\216\274\030\327\237=\216\252w<\\\323\201\275\034\255\013\275>j\037<\220\363@\275KE\222\274\362\264\242\275\377\360\031=\022<I\274E\265\233\275\262\372\003=\267\253\335\275\214\014\251<\256\177B\274f/p=\3425\207=\364\234\301;\320\266\204\275`\207\332=t#\232<\247?\211;XJX\266\3275\215\275\342\237\221=\021\306\372\274E~_\273\355\214>=-`\035\274x9^\275\240\222\233\275\266\\i=<\014A\27594\354\274\332\014\244\275\014\356%=\377\377\214\275Q\216\300=\"8\016\275\354\365\356\274\340f\257\275\2605\021\276\336Q \274\247\334\202<Q\305\260=\361v\223\274\234\301@=\006\005\262=\316\355\344;\262\2241\274\237\324\004:?\310\246=U\365\221\275`[\357\272<%\005\274\345\3618\274z]\313\273IDX=g\372Q=!\352\255\275\346-\223=\233\037Q\274qv\327\274N\326%=N4\034=\370m\320\274\205\003\272\275\201\025\025=\013\253\001\275\217)B\274\244`\203<\306b\220=2U\255=\212\035f=\301\336\030=\n\350!\276R\324\204\274G\367\234= \335\233=^\007\272\275\001\310/=\'6\314\273\241w\240<\353\241=\275\271j\006>\r \271\275N d=6\356\017\275w\014\260=\273f\252=\327T\021;l\370\374\274\004I\217\275\224\177\222\274v\323^\275<M\270\275\230A\017=\333\243\331<\220a\226\274\2204\304=\317D\326\274 \336\332\274\215*==b\215\265\275{\207A=D\211%<u\337\260\275V\253\270=\007\367\273;\205p\003\2757\016\013\275\371\322T\275\tL5\275\207\212\201=\217\206u\275\361\223w\275n-D\275\244\262#\276H\211\331\275\017\002\330\2759\333\235<\265\235\013\274Q\334\360\275\200\031\243<kD\323<\372\320\"\275\271\024\213=\371\017\274\274\242\024\251<L[\310=\021 \036=Vq\245<\'\360\321\274\353|\r\274\014)\271=\210\367\210\275\r\214]=\252\236\017\276\3430w\271Ma\n\275\321?\261=\272\262q\275\002\273r<U\017\305\275\327vY\274\277;\003<R\346\377<\314\231\204=\215lm\275\367`\035\274\304\035\357\274\365\374d<\257\215\335;-ry=\354!\226\270?\013q=\020\r\213<\301;\275<\266\236M=\343\313\000\275J\256\270=Y\322\206\275\337\333\370\274\016\262\347<\261b\332\272\251T\321=\246\266\202\275\246*\251:\361R\372<\010\002\220<\376\374#\2756\223\027>4\010\032\275\273\323\245\274\226\354K\275\373\265\014>j\306\005>\341\265,=p\370\377<\027V\346\275\217R\231\275\030\270\036\274!\033j=;\303\t=\376\336\235\275\000J1<\372S\025>\032\301{\275\2535\\\275m\313\312;\016r-\275\272P\221=\200\262\335<\016\335\206\275O\344\023<\362A!=\0240\221<\276x_\275\231\210\206=\301\224\203<5\271S\275Up\261=\353\211\245;.\372\316<1\317\234\275\262\241\353\274\244\310\233=\311U$=`\263\312\273\226{h\275/g\223=hS\376=\036\273\334\275\223\215\000\274\202m\251<\022<}=Um\227=w\017\250\275\274\017 =\350\013\276=\014\024\221=6J\272<\346\247M\275\305\277\206;\302PA>s\334\026=\037\177)=k\250\304\275fj\375\274\016|a=\230&\005>\270\035K>-\033\000\275c\267\222\275\330\031\307\274<L\000\274\243\200m\274ne\227\275E\023n\275\210n\301:?kI\275\272\250\204=\\\232\323=|\036\255\273\323k\375<\326j3=\214U]<\363K\277\275\302\216\237;\321t\255\273\036\034 \274\345\326$\276\270v\310<\362\020\232\275\272K\035\274\021\215r\275\331A>\273\272\266w\275\325\177\267\274\004\306\325\2744\302s<a\030\226<q\331n=\034>\353=\255\374\337\275\216\376\"<\354T\\>\202\221\037<\024pm\274kt\310\274\237F\000<\225\235\366<\211\242\321<\211U\367\275X\267\213\275\240@o\274\355\337E\2729\342\r<G\326K\2757\305\366\275U\243\037<\003\266\211\273\240\252\203=t\331\206=\036y\313\275\321\264\031\276\316Cu\275v\373\252;\324l?\275\220Ps\275\335;c<\354\025\005=\232\027\010<\237\177u<\316\210\010=\257\376\311\275\002\206V=.\024\"\275q\304\247\274\201\227\t\275>\236\203\275\001]:=\226\034\205\273\241(\234<2u\265=x.\031\276=\365\233\274\026\021==\377Zx\274\321\200F=\035\246q=\302\266y=rZ\231=z\006~<\314\302\272=3\315\357=\021\310T9\014\344\032=+T\001>*H\022\275\210\226#>\231L)=\376\253\302\275\265tE\275\006\214f\275\370bA<\276\354\320\2747d\361\273W\0270\275B\356\230=\222\210\253=\331f5\275\240sQ=k\273@\275\376\213Q<\277\256N\275\322\267+\275\242\307Y<\312\365\323;3\031\361<\251\020\313\274\034F\374<|3\213\274\320\035\205=\346\366[=\257\000#>\324\220\247\274dn\253<~\275\354<j\364#>7+\225\275\374\241=\274u?\220=e\023\251\274^:N=g\200Q=\347N\213<\0345\224\275\262\314\025\275\201\374\034=\363p\207=O\264b=\024\013n<Q\363#>\217\314\010\275l _<3\331a\275\254\230\031=\033M\326<K\332\024=\236\352,\273\337T\270=\365\013A\275\002r\336\274\010\032\334=\356\311\245=\277\311d\275|\030\006\276\311\334*<3VH<\224\262$\275\nt+\275\372\231\003\275]K\344\274\300\376\245\274\277\225\271=v\361\245=\372]\301\273\376\261E=\335\300*=+\345\267<\256vE\2756\037\257=\334\007\343\275<!X\275\335\212\000\275\301l\0079\265\270O\275Cg\032:\347\210\372<\312\353\213=M\242\303\274\264\377q=\336\234n\275\366\252n\2732]!\275\242\004>\275nL\n=wo\216=\306\312\206=W\033\204\275\270$\202\275\242n\321=\036\014\254=\345C\021\274Qs\222=\017\333\010\273y\230\337\275c\242\225<{\275C<\t\253\250<\364aC\275HQ\254<\232\223\255\273@\376k<\220\346\276\275\314\313\005\276k\322\007\2750\312\322\274T\247\217=XY\264=\335R\233\274q\262\235<\035\271o9\236I\242=P\300\304=\025\314,\274\370\310q\274x*B;\020\312\005<J&\264=\276\340X<j\323\367\274\347\203k<$\314\251=B\013\267\273\370\332A<\356[Q\275g#\326;\025\334\253<G\307\033\274\336\361\250<\035\330\365\273\007\'\300\274V\020\340\274\023\244\'=\2644\034>W\216i\275b\356\311<U\236\315;\267\330\257\275t\333\036=\036$\307\275\220]\356\274{\224\304=.\362`\275\0337\353<\350>2=[\221\255=2\353\217\271U\027\344<\016r\033<\310<\016\275p\256\216\275\364\300\010\275\263\371\214\275i\323\020\275\266\240f<p:\300=\232Y\267<\250\006\230<\226\325e\275\206\216\031<\354=+=\346\361R\276\270=\007\276\301Q\336=\317Z\276<[<\020>\2377\207=\343\036\220\2743\375\270\272\034\025\311\274\305\"\365\272\335\334\227<I\014\271\275\337\211\037\275\342\377e\275\321\247\215\275\363\355\207\275\3441\347;\273\351N=_\366\273\275\317\266I\274d\326\247<s/\017=0\336m\274Q\306\224\275\360B|=\346\256\256=\354\345U=[~\205=\020H3\2751O8\276\014\367\250\273@\210\374\275\321\355\022\275\245(\351=;5\373<\353\362H\270i6P\274\r\372\201\273\321\032Y\275\005\026\242\275I\337\t\276\253_\031=\344\304\230=\222B\036=H\337Y<\025\354\000\276\207k:=\200W\230\274\356G\211=\004At\275}A\331\273\334\325\247\275\201^\223;\356\255\350:\254\354\024\275\207\310\030\275B.\330\274.\037b\274\372\000\245<_\310\010<.\350\006\275\n#:=\2474\200\275\2311g<J\215\241\274Vp\233\275\264*\002\275\"\013\262\274\216\223\210=\233\334J\2753\322\"=:\355\353=\256K=>\350(?=p\344_9\204h\232=\260lF<\305\315\222\275\\\243\024<\336\276H\275f\360\210=\253\355\226\275\365\334]\274\303\325j\274\357B\321=w\270\027\274^7\250=\020r\020\274\327\211\234=\304OX<o\245\225\275\316\t\020\275\300\303\n\275!\363O\275~\302\202=40-\275\313\340G\274\321\210u=:a\324=\"\0172=\261\357i;\235\336F\274u\247\200\275+v\344=\3422W\275\n\275\351<p\023)<O\240*>\331\376\215\275e\226\202\275\216\n\247\275\274\310\235\273\225\026%\275\371b\026=\002k\326\274\302>)>\372&\223<\322\020\020\273h\225\001=Xw\316\273=|\246\275\205\001\177=\363Br=\25574\275T\002\353\274\245\274\007>\246\202n=yr\264=\247\216?<\327\340\004;\216\216\254<1e\023\276\212\t\207\273~\372\217=\262\027u=\263Z\026\275`W\354\274!\0377<\3077\343=\000af\275&#\257\275h\010\255\274a\350,=\024F\n\275\304\2061<\330\2103=\257\177\t\275=W\274\274|a\263\274J\313b\275\324\254\224<\346\r\254\274\326\375\2249_\327\221<\346\031/>@\265\n>\323\302\271\274\266\211\304\275\252\300\211;PV\212=\251m.\275\312bc<T\340\243\274|\000\304\274\211\262u=\224\211\214<\235\257M\275\362\023\310\275\n\353h\274j:\002\276L\004/=bO\222\275\2431`=#W\276=\016P\366\273\267\351\002\274@\326\204=OX\001>\231A\364\275\212\226\005\276\235\007D;P\362J\274\363\022\200=J\374\370;\200\244\212\275#\255!=\200\245\221<$i\312\274Me\241\272\242\217&>\247\'@:\356\242\265=\nk\311\274\347_\232=\323s]\275\226\000\274\274\177\004\350<yk\221;\003&%\273\224\217\307<\211\220\\\274\253t\336\274\270\375\304=\n8\326=m>\263\274\376w\212<\013\215\315\274M\262\210<\3144\265=B\315*\275;]\307\273\024I\210\2740\"\207\274xQ-=\323u\200<\3038\352\275\350OK<\037\265\276=4\375\257\275\025\333\277\275\331}\301<\021\312\265=\362\233\362\275\033Z)\275(\002\355<\301\217\310;\310\007\024\275\205\204W\275tJC\275\345p\257\275p}\230\274\230P\035=M\264\006\275\022\210\231<<|\354\2745\347\\\273\240\244\r\274d$\343\275\347-\226=H\243K:\2011\005\275\237a\275\275W\310Y=U\306A\275\022\311\260\274p=\340=d4\261=\352t\031\275]I\010\275\372I5\275\2402\231\275\327\220\r<]\307\200\275\021\016\265\273\303?:\275\345\270D=\322\216\272\274\307\364\r=\332=\244=z\r\014= e\362=;9\213<\n~\251\275\0065\023\275\307\324\257\274\213\276\030=\316\010\235=\205tU\275\332\325`\275\006\024D=\372I\037\2758\240\245\273\244\374\225=X\333 \274\252\326\327=(\3119=\005\330\360\273\263\255\316=\342\367\245\274M\366L=\024\276\333=\022\345\217=\023*\035=\351<$>\215\346c\275E\377I;\202\002&>#G\220=+\375\232\275\226\357\003=\304\242A=M\347Q\2751\215,