node {
  name: "keras_learning_phase/input"
  op: "Const"
  attr {
    key: "dtype"
    value {
      type: DT_BOOL
    }
  }
  attr {
    key: "value"
    value {
      tensor {
        dtype: DT_BOOL
        tensor_shape {
        }
        bool_val: false
      }
    }
  }
}
node {
  name: "keras_learning_phase"
  op: "PlaceholderWithDefault"
  input: "keras_learning_phase/input"
  attr {
    key: "dtype"
    value {
      type: DT_BOOL
    }
  }
  attr {
    key: "shape"
    value {
      shape {
      }
    }
  }
}
node {
  name: "LSTM_1_input"
  op: "Placeholder"
  attr {
    key: "dtype"
    value {
      type: DT_FLOAT
    }
  }
  attr {
    key: "shape"
    value {
      shape {
        dim {
          size: -1
        }
        dim {
          size: 100
        }
        dim {
          size: 4
        }
      }
    }
  }
}
node {
  name: "LSTM_1/kernel/initial_value"
  op: "Const"
  attr {
    key: "dtype"
    value {
      type: DT_FLOAT
    }
  }
  attr {
    key: "value"
    value {
      tensor {
        dtype: DT_FLOAT
        tensor_shape {
          dim {
            size: 4
          }
          dim {
            size: 256
          }
        }
        tensor_content: "\014\357\265=\323f\270=\336\261\274\274\2358m=q3#\275\020\3177\274g\325i=\\f\247\2747\245\201<^2U<6Q\260<{\035\322\2756\226\361\275\317:8\275}*\340<\255\352\001\276`\345\256\275\374r*\275\231\257\253=_+A<f \034=\207\322\201\274\254\205\353\274\275\333\014\274}\n\276\274_l\013\274\257r\347=c\272\301\274\221@\024\275\305\244k=\330k\027=v\217\313\275(\002\226\274#c\202=\325a|\275z\341\222\274\017\n$>\267W\000<;\020m\274GI\000>A}\357<\276(\342=\275\202#<\357<h=\003\335\003\276\352\226v;*1\205\275a\341M\275/\333\337\274\037\224\224<\350\335\306\275\352c\354\274\007i\215\275%\235\364<\3657t\275}\3226\275\322\2157\274S\023@<#\271Z\273\221\326\255\275H\323A\275B\003\033<\347\230\"\275\236H\005\275J\3730=\245\374\000<\252\200\"\276\020\022\\\275\266\272\310\275\234\243\004=\026\261\\<\313\271\n>\245\035B=\013G\016=L\217^=\311R\251\275q\'\225\273Bd\024\275,J\300\274E\372\335\273\356\377b\275\322#\004=\320\261\026=%6{=\274\331\020\275\274\262\273<z\206z\275\300B\314\275\255\366/<\355\360\243\273\371\206\214\275\324\347\226=\350\021\030\2750\030\264\275/\3748<\224\034I\275T\354\r\274^\323\315\274\034\032\t=|L\310\274\227\200\223\274H9\251\274>\230\300\274\253\002\002<\036\351*\275\2078m<\235\224\001\275\207M3>(\"#<\374\243\036\273\2143\031=&\342\244<|G\252<\355\232\004\276\020\227\000\273\004.\204=/\360-\275L\351\305\274l#\353; {\360<d\t\210<\020#\302=a\362\206\275\333\213\356=\303p&\2740o\375<\264t\001>\n\364\203<E\303\014=\004;T=\317\230^\275>\244\316<\311\3728\275?\342\300;>\260\355<K@\240\275\355\237\210:F\3119;\334\265\341\273\216\000\200\275\340\321\200\275\341y\201\275\n\271/;c\246\376:\013~C=\345[F=\303\315\205\275\211a\261\275\216\017\t>~\305\314\2750\347\033>\355\233#=\367\245\302<\016\377\242=P\201\201\275\204\210f=fz\n=/\337\002\276?\217\234\274\r\tX=H\204\001;\200\227&\275\r\255\373<;B/\275yO!=Bk!\275\277\322\362=\321\365\200=c3$=\312`\221=c\340U\275\r7\237<\236\325\027\275@\265\013\276g\266\327\274\327R\341\274\271#\352=\300\245i<]\306c=\361\216\237;\331O\003<\327\264\224<\000\230\341\275\313\343\265;\235\300\037=a\376\n\276\\\373\'\274\334\252\025\275\023\354\031=r\372\312\275\315\327\022=\265\326\251;Z\273\375<Td\374=\353\324C\275\nO\345\275;\330\260\274\243\022\r\274\027\337\340;\025Wm\274<\306\235=\26075<\342\014\203\274z\304\020\274\342y\020\275W\221\271;\264\376\345<c\234\003>Q(k=<Z\254\274U\343/<\312\354\326:\007\233\325;z\310<\273\230q\002=&_\000;\217e/\275lE\306\275\220d\017=\335\030#\275\250\266\233<g\253F\275\236bV\275\376\2526<O\023`=#7~<j\232\240=\275\227)=\024c5>\027\376\350=\340{\275\274!4(\274\370\224W=\313\265\242=\212\177\346;[\253\210\274\314\204\027\275\374\374\204\275K,\242=\325\224\006\276m\334\006\2767-\315\275\340\246}\275\203?\342\275V\357S=\001\320I=e\240\320\275\030\243z=\223\237\032>m\005\004\275\000\213\234\274\275\221 =I\"\23795\315\315\275\006\327a<\021\354\023\2759\330\227\273\007\246O\275\364\337:\275.\272\013=\3401\020\274\000\200\213\273\312\001\342=S[\221=J\316\256=$\353\024\274\256\374r\275q\316\026=\"\030\232=\373{Y=3\033j\275\352\352\350<\371\217V\275\037\017\024=Ut,:\370_\351\274\030\326z\275\250\317\245=\031C\377<F\002\366=0\347T\274;\213:= \242\371=L\351\370\274\331i\247\274\242\301\260\273%\307\331\274\014\321\315\273\177\215\342=\220\237\331<\302\277\343\275E\231\001=\233\340\300=\244\305\241\274\220,\027=\226\264\204=\260F\005=\010\304\224=j\312\264=\034\002\217\274\265\221\234\274\337\'\367\274\207\254\324=\254(\027\276\353\316O\275\333\332\212\275\031\213\215\2743}\367\274\000\252Y<\204\222S=\374\002P=\026S\247\274@\271\365\273\004\3164<d\323\317=\216\321\005\276\346\342\360\273\201\314\027\274\355r\034;\325O\274=\373\362r<|\017u=\0136\030\276t>\036>O\036\252;\305!d\275\027O\235\274\210\367\005=B/\326\274\177\342\206\275\213@9=0:\257=w^\216\275\371\322\373:\365\332\245\274G!\031\275j\0175=o;\205=\275\231\003=\230\363\341=\202\212\014>O\332\201\275\213\2210\275\332\003_=pX\336\275o,g<\205\355u\275\353\022^;PW\037<\261\217f\275l\263\253\274=\252\246<\2113\350=\016\000\213=;\225\304\274Ll\340\2722\305\276=U\t\251\275f\236_=\257\235\215<\366\263\200=\231A\320=O\030\225\275\324\030\177<`\256\326=\014\342o=\247\001\372\275\031\256\374;\241\253\212:<\212T<d\224\212\275\372\357\336\274\357P\346\275l\2031>)-\266<\2218&=\322\000\032=\376\307C\274\rf`\2752i\213<\367jI<\267\030\217<&Ej<\341B\235=\320\226\"<\026\022{\274\324\021\306=B\367\\=\264\262\312<\340T\267=\367c\304\275\207\005z=T\027>=&\351+=?\316o=K\353!=M\307\032\275s\267%=B{0\275\030\324\010\274\3613\303\275m\206\275;k\372\024\275\356\215\205=\355-d=\306\314\354\274\261\207$\275g\312\244\2753\2736<o\233\256;n\r\365;g\010\213<\341\323k<\232\243\036=\022\203\321\275\344\344 \2743\252\211<\363[\013\275\356M\246\275\323;\215\275\257=\014=M\273\344<\000-\005\275\037\314\333\275A\224\214\275\314\326\023\275&\227*;\352zR\275\2378]=\276\324V\2757;\216\275\260r\001=\263\r\315\275\265\235(\275\254\376\017\275E\0145\275\263\214Z\275\342O\275=>\336\243\275f\356\303\272\020&)\273\256v~\274\237j\365\275V\304\255={\3651=9V\200\275I\024x=\016H+\275\237\334\335\275\303\n\034=c\206z=\247z\376\274\303\347\033\274\353eB\272e\372\210<T\224\177=\211pd\275\206\246\245=K\357U=\357\346u\274j\217:=\353\356\021\274\267\253\016\2752\242*=\035\356\005>E\242\245\274\2113\020\274\\\252x<\355\n\235=I\303.=8}\337\275iD\007=\021\337><O\274U=\203\244\216=\345gt=\310 \333;\267\000\201=\002\200\211=\204\377\r\276\010\007\226;N\234d\275\264\207\213\275e\252\265\275\211a\317;,\3714=\373\203\277<%\337j\273\005o\317\274\337\000\247\275q\355\357;\224:\211\274U\231\003>\320-\332\275\003\250^=\245\014\'>\310\364\255<Q_W<\303\217\214=4\264v=!\"\203\274\335\031\034\275\031\274\371\275{V$\271oz\246<\3478\031\272^\362\356\274\321\346\001=\275\234\201\273\207pR\275v\177|=\356\260D>ot\307\274MT\332<\370\325,=\221\260\003>\263Q\351<\207\315\013=c_\007\276\031\367/=\317\311\331\275\355\207\n\272\371\254\\\274`|\215=n\006|\275\203n\311<vX\035=(D$=\335~\240=\360\217\311<i\t\027\274O\276\227<\250\224\201=\210S\325\275\211A\261=:J8:\310\350\r<\364\362y=\372\264\246=-<\217=,\262\245\275\217S_\274\334\240\342\275\010J\323=t\204^\275\325\352\n\275\226l\230=TCo=*\003\017=\225\031\025=\302\267{\275\276\016\021\274v[\207<\032\365B=\206k\252=\334p\343\273\203\272S\274\235g\216=>\227\232\274\256*#9\002\302\320=\251\220\343\275\305\330\031\274r]_=^\277\275<L\010\020\275\r\255^\275\335\335\360=\304/P=w\005\035\275\\8`<`\344\202\275|\210h=p\312\267=4j\253<\004\261\177\275\034\000\215\274\3231\030>\256\352\275\275\207\363\274;yr\246=\3416\021=V\255\301;\360u\214=\nH\360=5\210\234\274\327\025E=\315\352\271<\371\252\003\275\244d\211=\025\177_\275\243\246\243\275z`~=\256`}\275\017\207\201\275\266zM=8\314L\275\320\226#\275\336x\037\27568\242=\343\346\336\274-\004?=\312e\007>\317\312\252\275\250\305N\275\'\252\231=u{-\274\313\031\227=\031\234\276\272^\240\337\274:\240`\275-\224\262\275~\010\315\274\032}\325\275\016\3025\275PE3=\020\375\270=\3275\345=\356\312\233=\370\030\265=\214j\214\275\3677\351<n0\361\274\021\242\336<n\2604=\'3\203\275\344\230\331<b:\236<;\346\314\274\206\356\213\275\260:\364\274\225[K\2740Gd=J\217\231<d\370\342\2749\310A\275\035\237\255\274}\250\003=E#\241\274\302\300\261\275\255D\264\273\314\024\217= \036\251\275\010\306_<\340\3165\275\362\252\213<\243\211L=\341Zr\273\004\363\265=\353\004\233=\356\314\255=\334/1\275\024f\205\275\371#\234=O\222\240<\027\327m;\357P\024<\207\332\315;\022\3712\275SN*\275\361\213\371\275r/\316\275\020\363\313\2745\207z\273\337\206$\275n.\006>\025\014~=\225|N=\3006\275=1pP\274;\277\014\275\304\305\226<2M\0239\304XU\271\301f\373<\302\226\361\275u\'\217<{\267)\2757\016\235\275\314\014#=QM<<\036\320\344\274\332\213\366\275r\353:\275i\'\340\274\005\010\332=d\214\204<\0339\251\275Z\020w<\360c$=\302\335y\275z\301\321:^\023N<v\317`\274c~\010>\316\177=\275\2224\203=t\245L=\203\204-\275\355|\003>T\356K=Y\312A=\251\302\344\274\026Y\366\273a\014\276\275<\266~<\231~\242=\246\345\363\275\377!&\276zQW\275\201?\270\275\315(\"\275\362\327\005=\340$\312==~t=\302x\251=\352\237\273=\247<{\275\230\355\201=\333\373B\275R\243\215\274^\353\275=\325i\r>?\037i=\230\246\346\274\202\035\013\273\241\337\355<\007\340\037=\303\2508<\310\245\020\275\243\347\203=*\355q\275\342\024\206\275\350K\366=\\\333\302\275\306\0069\275s\366\234=\264Oo=\332\333>\272\321\353\316=y\343o=%Q\000\274\310\217\345<\364A\305=\334\2412=\316\263\300\274\227\275D=\276A\265\274\220?8<JF%\275_\351\210\275_\033S;`\205{\274V\305$\275\350n\007\276}\3143;\250v\221\273\364\340\023\276fq\340<\277EV=\222x\233\275\203\002N=\2431\"=\361y\303\274\177y\217\275%^\356\272*\252!\275\301OT<zwP=\350y\247=,\303\371\274G\234u\275ff\275:\025\221\273<\246n\311\274<\274\030\275X:;;\217T\250<\331}>\275\265\335\216\275\354\300\006\275\230F_\275\3715\022\275\312\304\243\275\003\314\"<\270~\205\274\212\342\002\275\277`\257\275Y\212g\275\222<\305=\357S\237\275\234\366\260\275N4W=C\204\234=L,\344\275\001W~\275\267\007\250\275pQ\020\275\257\000\024\275\242\002\350\275\363\224h<\216\021\002\274\335y\010\274\377\323\320\275\022\205\356\274+\304\374\274]p\332\272b\251\334=\271\264|=\256!)\275\267\303\317=\253H9=n\254I\275\026fc\275lp\014>\235e\001>n\317\227\275^\303\241\274\263h\270=\344\343\022\275#8\014=\'\223|=\037\355\026\275\3273\212=\314\3378=\217\244\266\275\2175p=\n\236x\275\337b@<\330\212\230\275D]\032=\321\334;\275\t\355m\275 \'\270\273\026\231\254\272\266q\302=\232\021R=C\334*=\210\0048\274\257\355\210=\232\021\020>@B!\275\222\344\014\276\236 \260\274\261\300*\275\232\025\316\274\235\312\235=\250Z\247=62\317;\275we\275[\201\265\274\240z\221<\346\\\177\274A^\252\274\242\267\375<\324\217^=B\330\370\273f-\035\274\202\3245=\006\203\203=\353\201\010>\256\232\036<Tq\235=j\364\r=Q\356\243\275j*\241\274\024H\017\276K\331\032\275\005\316\221<I\242\347=\251\352\272<\002\0338\275]C\273<X\\\304<t\202\024=\371\016\205=\nv\177\275\243>\202\275\000\026\304\275\373~2\273\276$#\276><M=\225\305\201=&\343\235=\370\305b\275\225\233\033\276=\177\035=\r\251\246=\277\3308=\362\t\237\273fE\252\275apb=\347]<\273\344\320\014=\342\263\254=Y[\t=\017F\006;\271\247\215=\264el\275zU&\274!\305\214=3\0229=4~\357\274C$\033\275e\r\320=8\357\364\273\366p\204;\200\333\260;8\025[\275\377\273\t=\301*\n=Rkr\275\371\357<;\026\211\222==n\231\275>_b=\313\201\336\274\326\325\203=\025\010c\274\343>)<\210\250t\275\276\346\024;\262#\344=\r\215,=\ts\202=\035\310\260=4\333\250<Pw\301\275\030\201W\274\362\340\247\275m\343\357<\2456\244\275\002\3759\2753\304A=\226\251\315=\255\n\210=W\n;=\354\215\220\274\231\025\313<P\334\217=\020\006\250=Z\210\226<NN\270=\211\331\002\275\241\376\350=Pt\273\275$\nH;G\344\243\274\227\351\r\275\036<\247=\n7q<\253\211\r>\277J\221<5\334D\275\225\2340\275xw\035=\036\225\016\274\267\263\304\273\036\347<\275*Yw=\257\222\271=>\232`\275\330\276\244<\311P\343=f\261E\275\303\030M<\007?A=\354\336\354=\326%\232;\264\025%\276\222kp\275\212_\001>\3031\354\275\215\220\003\275\216\036\347\274!\241\323<\247\367==\2607\201=\332+\262\275\030R\246=)^\210\275\234O\'=\264\230\237\274b\333p\274\254\020&\275H\376!=\316\332/=\224?\022<;\206\273<\262x\306=\352\350\355<\316\374\266\275\307\022\010>\010\3221\275\264\342\204\275\361DH\275\233^\013<\215\177\206\275^Z\"=\333\367\327<\375:\371<\203\341\242\274\245\036-\274u\220\005\275l\034L\275m~b<1\327\027=\031\232\215\274h\212 :tT\274=\362\r\013=\005Z\000;T\202\377\275V|\007\276G\025\245\275\213\223F<\347\031\034\275\207T\245<a(\267\273\3064\304\2736\014l=`S\202\274\255(\202=\206)\236\275"
      }
    }
  }
}
node {
  name: "LSTM_1/kernel"
  op: "VariableV2"
  attr {
    key: "container"
    value {
      s: ""
    }
  }
  attr {
    key: "dtype"
    value {
      type: DT_FLOAT
    }
  }
  attr {
    key: "shape"
    value {
      shape {
        dim {
          size: 4
        }
        dim {
          size: 256
        }
      }
    }
  }
  attr {
    key: "shared_name"
    value {
      s: ""
    }
  }
}
node {
  name: "LSTM_1/kernel/Assign"
  op: "Assign"
  input: "LSTM_1/kernel"
  input: "LSTM_1/kernel/initial_value"
  attr {
    key: "T"
    value {
      type: DT_FLOAT
    }
  }
  attr {
    key: "_class"
    value {
      list {
        s: "loc:@LSTM_1/kernel"
      }
    }
  }
  attr {
    key: "use_locking"
    value {
      b: true
    }
  }
  attr {
    key: "validate_shape"
    value {
      b: true
    }
  }
}
node {
  name: "LSTM_1/kernel/read"
  op: "Identity"
  input: "LSTM_1/kernel"
  attr {
    key: "T"
    value {
      type: DT_FLOAT
    }
  }
  attr {
    key: "_class"
    value {
      list {
        s: "loc:@LSTM_1/kernel"
      }
    }
  }
}
node {
  name: "LSTM_1/weight_regularizer/Square"
  op: "Square"
  input: "LSTM_1/kernel/read"
  attr {
    key: "T"
    value {
      type: DT_FLOAT
    }
  }
}
node {
  name: "LSTM_1/weight_regularizer/mul/x"
  op: "Const"
  attr {
    key: "dtype"
    value {
      type: DT_FLOAT
    }
  }
  attr {
    key: "value"
    value {
      tensor {
        dtype: DT_FLOAT
        tensor_shape {
        }
        float_val: 9.999999974752427e-07
      }
    }
  }
}
node {
  name: "LSTM_1/weight_regularizer/mul"
  op: "Mul"
  input: "LSTM_1/weight_regularizer/mul/x"
  input: "LSTM_1/weight_regularizer/Square"
  attr {
    key: "T"
    value {
      type: DT_FLOAT
    }
  }
}
node {
  name: "LSTM_1/weight_regularizer/Const"
  op: "Const"
  attr {
    key: "dtype"
    value {
      type: DT_INT32
    }
  }
  attr {
    key: "value"
    value {
      tensor {
        dtype: DT_INT32
        tensor_shape {
          dim {
            size: 2
          }
        }
        tensor_content: "\000\000\000\000\001\000\000\000"
      }
    }
  }
}
node {
  name: "LSTM_1/weight_regularizer/Sum"
  op: "Sum"
  input: "LSTM_1/weight_regularizer/mul"
  input: "LSTM_1/weight_regularizer/Const"
  attr {
    key: "T"
    value {
      type: DT_FLOAT
    }
  }
  attr {
    key: "Tidx"
    value {
      type: DT_INT32
    }
  }
  attr {
    key: "keep_dims"
    value {
      b: false
    }
  }
}
node {
  name: "LSTM_1/weight_regularizer/add/x"
  op: "Const"
  attr {
    key: "dtype"
    value {
      type: DT_FLOAT
    }
  }
  attr {
    key: "value"
    value {
      tensor {
        dtype: DT_FLOAT
        tensor_shape {
        }
        float_val: 0.0
      }
    }
  }
}
node {
  name: "LSTM_1/weight_regularizer/add"
  op: "Add"
  input: "LSTM_1/weight_regularizer/add/x"
  input: "LSTM_1/weight_regularizer/Sum"
  attr {
    key: "T"
    value {
      type: DT_FLOAT
    }
  }
}
node {
  name: "LSTM_1/recurrent_kernel/initial_value"
  op: "Const"
  attr {
    key: "dtype"
    value {
      type: DT_FLOAT
    }
  }
  attr {
    key: "value"
    value {
      tensor {
        dtype: DT_FLOAT
        tensor_shape {
          dim {
            size: 64
          }
          dim {
            size: 256
          }
        }
        tensor_content: "=\370\330\275\352\350(\276\037u\366\274\331\303\254\274\032g\210\2759_e\275\332`9=\236\355K=\357\235\016=\347T2=\020z\276\274\330mh=L\021D=\017\373h=\365Q\343\273n\366\227\274\266\027\355<\306\236\207<\317\332\265=h\242!\276x\001\014\276x\024;\274\350t\264\274\312%\254=\017b\267\275\030Q\265=\022N\217<\020\300\032\275\33495\2754\307/<j\027\257;&\346Q\275\363b\242<\247\027\240\274\376\027m=\t\n\220=\3620E=\021&\204=B,\306=\313\347\';\025\017\217\272\233\226\005\275\337\213\272<\225U\027>c\337|\274\232\3778=\nvV\275*\013\025\275}r\324<\"\271)=j\264\225\274!\231d\275T\214T\275i\331N\275\332f\031\274&g\232\275\006\326\200\275\016\035\357\275\241\376\334\275\277\374\277=\333\372\222\274\240\314N\274\316\352[;l`2=Gdr\274\216!\t\276\364\201r\275h\"a=\r\022\023=\026\333\225\274\204\262\3359\241\271\206<W\201\217\275\264\346o\275\341\344\265=\277\004\327=I\350\034\275\270\362\317<\033L+=\322\240\217=\005\372\363=\242\001\333=\216(\024\276Qd\241=?\331\344=\311\237\244\275\307\346\270\275\327,h<p\r7=\031\232\255=\341\006]\275T\207k\275d\222\324;\215\323\262=\377\236\265\274\035D\206=HM\201\274\326\276\007\276\240\306/\275R\241\230\275{\363+<q\250\212=Eg.\275<\347-=\235\020m\273\206\216\212<2O\205\275L\006\213\273\313\240Q\275\367Vo\275u)V=\\\177\344\275\001\253\035\275\3420\240<\202\275\013=~\333\202\275\233e\241=^\214,\276\236\025\213<\037V\214=\030iD<\2540\201=)vN\273\223`o\274\341\023w\275\372\025\355<K\252\202=u\375y=X\204\022\275\273z<=\266b\333\274V\220\000\276\006t{=\014K\371=\335\211\016=\206t\263\275\371~\327:u\0047=\245\370)\275]\257\014\273\321\374\206\275-\376\323\275Y\226s<a?}\2755\3144\272\3125\032\275Z\360\316<+\262\037=\314\027#>\373\362R<\203\n<\275\257\rQ\275\2519i<\313H\345\274\032\220\005\275\232D\267=SOH=^\263\001<7)\026\273&\357\031=w1\212=\020\2700\275\302\354\302\275\023/z<u\373\237=f\252\352<\347\235\277\272X\344N=\361\336\037\275u\330q\275 \355|\275\323\017\351=\215.\346=\230\370\230\275\276\345L=*F\356<FjZ=,\201\277=S\214\205=\317\004\032=\236v3\275`\311\010=\221\r \274\377=\256;\177\272\003=\266\363\372;\210\253\353\274p\276\255=)=\001>[\024v\275\242k\207\273^j\016>\327\350H\275\310\357\307<\353X\034<\0231\260\275.\253\333=d6\013\275\240*\326=\244S\325;P\370\212=$n\261<rm\330\273D\033\023=\331\374\033\275\017\243]\274\366\317\037=]\004N\275\273\233\004\275\315\262\375=$:\356<\342Pm\2744n\302\274\246,\017=\024\204\212\275\214\260w\274 V\357<\033^\237\273\320\264\234<\335h\312=\214N\261\275Bj\261<v\362\223\274\264\007[\274hH\260<\210)\200=_\367!=\205\313\'\273Q\3769=\265\332\264\274<qE\274\023\225\205:\031\021\337<\'\333\036<w\346t=_2z=\0369\017\2753QG=\014)/=\260\332 \274D;@<\252\006\t>\226\177T=\210P\313<kR\277\275\214_\007=@\347\264\275\2436\341=\343k\004\276W).<\224\354j\275&\344\252\274X\330\356\274\223\250\254\275=\207\243<^\267\334<zZ\252=\256\2306=A^\017=&\205S\275\351\211Y\275\237\026\211<\257(\025=\274\236\326;\0044\207<_\222\345\275\371\001o<*\222n=\224\263^\275\005FC\275o\021\217<\007\033\277\275\314\367\264<\260$\033\2760\256\371<\302\035\237=\242\372P\275\315\327f=\263\223|=\252ss;Z\346\241\272\331\372\272\274q\217\230<eQ\220\275\236\267\210\275(W\343; \344\234;\317S\377\272\337Fi\275\345\016\354;<u\207=\032^\343=\303\217\331\275\241\014\376\275\302\246D\274BS\370<\301jP\274\344br=\361\216\243<\021{\006>\361\312\232=\003\037\035=E\003\352\275\360\004\246=3an=\243\203V=\347\264z\275\000\300\205\275\265\330\243=\323\256\225=\253;\307;\207A\221\275\241\315\024\276\367\313a\275\253\203\275\275\242\2316\275DV\236=5c\314\272\310-\242\275\024A\327<(\357\207=\364\266\003=G\335\321=6\274\266=\210-\232=d\361\005\275]\034\"\276\322\221\035\274\024\014\t\274Z|\261\273\322,\227\2753\030~\275*F\347<\350\010\t>\227\275\235\274\026\234s=\230!\354\274\373\355\245\273\325,1=\006\331M\274\n\002\321\274\2379w\274\276\270\255\274!oW\275\005\365t=\037\217\251=t\247C\274\347[\236\275\327X\277=T\307\314=&\367z\274N\026\033>&s\273\274\216\000~<g\020_\275\253\365<\272\003\rR\275\334\362\226<gk\027\275\364.\026\274s\'\214\274@\201\215<0\271\033\272\301\240C=\006I{\274\246& \276\023\323\361=\202:k<H\337Y\274\t\333\226\274\220B\267\275\006B>\275\255\254\211\275(\247\233:\346\275\222<d\241\315\274\317\213&\274\210w/=d\232\224=i\302\206=n\\}\275\033\374\335;u\024\207=\220\234\272\275\311\356@\275\236\346!>.\317\331=m\357\021>\330\231\366\275\022M\311;\004\212/=<F\221\2753_g\275\370\246r\275\215\256\276\274\314\252\212\275\n\364>=\354\265(\275\206VH<\014\2561\274\363\220#\275Ha\031>\2342v\275\031\310_=\221\021\254<J\307\206\275\321\353\007\273\007\000S\2756d:\275\223\212\324<\3400\265\272l\252\037=\3373L=`\336\177\275\036\211\036=Z\025s=\335\262\247\274\273\326\034>\t*\201=,\014\235=\261D\320<\2069\032\275y]o;\361\272\233\274\3552\261<\226\177><qo\264<\307\022\013=\264\r,=Fn\224=|\205y<\r\250J\275\244B\250\275O\331\363\274\267\037\277=\274EL\275&|\237=M\005\254<\276 \327\2748\245\217\275D\301\021\275\251\326\342=1\304\223=\220\267\266\275\272\243W\275o\022\376=\032\237\316\275;\222\251\273\311H\'\276o\301\315<\251\226\343\273\222\332\214\274V\214;<\366\266\354<\326\341H=\355\372\202=\207\234-\275\305\203\246\274\370\033\254\273T\336\030\275a\266\323\274L\260\225\275\003\\I\275\007sg\275\317e\267<B\354y\274^\225\221\275@!\302=\034\240c\274\372\376\005=kL\016<\003\267<\274\3240\262\273pk\200\274\274\350\211\274\343Jl=\245z\234\274o\370n=\274,\200\275c>\217=\220\031\234=\343\367\004<tL\023\276\252u\335=\000\213\332<F\351\217\273[\336H\274}\210\332=\244?I\274`\035\t\276\\\200\252:\271\352\013\275\204\221u=\304\317\237<\n\006\377\274~\223\021\273E\315\t\275\212E9\275&WQ\275\366\360V\275\324(F;\035`\266=yg[\274U\206\364;u0\266<\026\203<<\271*\374<\2500\236\275\342\212\223=\222\326\231<\031{\236\275\270tB\275u\222\026=\037\252|\274\261\260\365\274\315\363u\271\303\326f=VKP=\362J\n>Z\362\273\273\334?q\274<\344O\275\224\275\371<\333\320H<4\006\247=\270<\265\275\007`!=[f\266\272\245|\257\274^Z_:\2209\034=\355\246\227\275X\002\023\275\177#c<o\363\245\273u3\230\275Ml\027\276Z,\200=\327\020\021=\360\240\323\275\253\306q;f\'\226\273Az\273= \204\323=\336*\222\274Z\312\020>\034)N\275\323$.\275\375`\223<\257\362\007\275X\320[\275\311\364\350=\245h\245;\013\342\374<\350\026>=d\007\374\274\224P\022>\034\347\254<N\210\274<O~\230\273\313Z4\275\020\027\300<\370\374\206=\372\267\234\274rh\014<\254\254\266=>\274\203\275\276\013\031<\327\244i\274\356\030\265\275\245\206\213=\2136(>\230o\270\275.\325\013<\372\341\240\275\221\271\322<%\217\351\275\242R)=\231oN=l\223T\274\273!\207\275\322\241_=D6b<(\343\210=\205\3203=+\351x=\031T\257<-{\363=\214.j\275\322,\036=\371a\210=\035/N=\016\344\357\274\250;\003>V\346\307\274,\326\206\274\030\021h\274\323 /=?\202\255=w\316\014=!e:=\317\323\351<\310\340|=W\321\364\275g\030\001:h\023\375\273\006w\342<\027\374\"\275R\023\264=\227t7\275\211q\271\275\016\334\000>\341\272p=\026\213\001>I\310\237\275\210H1\275\361j`\274\367\263z\275\203s\231=\026\337\326=\350\252\220\273\002\"-\274\032\005\352\274\014\213\344=zu\250\274f\331\337<\2773\214\274Ua\307\273\346\373\277=\316y\003\273\026\301\213\275\307M\035\275\3232\202=\263[\215\273\333}U=\332a\312\2742\307 \275>\366\357=|\323\260=\\\341\243=_\260\026<C\3677=[\377\327\274\005U\204\275\337\2172\276\261\241\325\273,P\212\274>\326\034=\212\336i=\207\205\026\276\026\233%\275\215\375 \275^\251\222<4\010\204=u\265u\275\376\355`=\257\r\304=B\246\"=\335\307e\275\277?,\274\010\215\216\275\'\023\226\275)\226\222\274\224\2024=\351\305\n\275\312Q\214\275Q\324\331\274+\306+=\031\312\257<\006\243\252<\343\304,\274<\273?\272\022\010\032\275Iuz\274\312\265\222;\343\026:=3\241\213\273\306\303\312<\266\302*\275\345>\346\275\336L0=Z!\275\273\323X,9\265\271\215=\230\022_\275E\016.>MP\206\275YJ\325<\337\036\206\273\340J\271=\257nO=\270FO=\346;J\275\260\344h\275\'\220K=\305\277\313=.d\277\274\256\035\230<\026\026y;\332\212\222\274\250h\274<\312\002\221<\255\353\020\275\234\265\221<\271(\027>\001s\341<D\262X:z\010!\275&\237\320\275\243F\215<w%\t=\271\256\365\274\376\363\250\275\241\301\307\274\3511\010\275\006\327\002<\246\202\371<h\t\221\274I\307\215=\307\3779\276$v(=\207\373\022\276$Cn\273\307\nC:af\246=\013\025\250=\361\320\317\274E\3363\273d\353\360\275.\202\314\275\003\263v=d\233\310\275\266X\006\275f\221\230\275\275\346\336=\204\206\330<\373\027\037\275\221@\325;\333\300\311=\323\215>\273f[(=\324\223\023=\334$\245\274$\225\276\273\027A~:\022\001\364<Z.h\275\263\000\254\274\261\330\251<5\000\326\274\334X_=|\377]\275S\226*=SK\215=\031[6\274Laa=\277\370\343<Zt$=\217\263\n>c\036\335<\353\373\350\275\254\265\363\274\321\027\033\275\223\020\321\275\354\265\036<2\236\266\275_O\r<<}\003<\301\314m\275\377Fw<\002\211\004=\324\277\337\2732g\233\275\213D\203=\230?\'=*\347\373<V\250\007>\334\010\234=\002\372U=h\376\214=\2779\017\275\207!#=\260\262}=L\227_\274\207L\002>\303\313\356<(\245B=l\364\217\274\222\247\232\275Nl\325\275\031C\n\272\220\320\204=\222a\215=\003+\233=\216{r\275/m\221=\257\206\245\275\024\373C\274\272\314\247\274q\374\t>T\342\242<\237mt\275\275\301C\274\347\261W\275}|\207=?\014\312\275[\273\020=)\217/=$cQ:?\316\276\275\261\256{=g\212\"\275\246Oy\275c[\225=\034\307E>\3120\254;\tM\037\275\232D\232=\307\302\235<|\037r\275Z\211\367<\274\237\301\275?X\023>\'\352P\274\367\010G\275X\304-=d6#<mt\214\274\302\026\217\275\001\215\201\274fK\227\275\224\250-=\001[6\275\0063\020\274J\224\270\275\t,I=\022\335\210\2750\003_\275k\316\252\274\223l\374\274\244G\351\275\271\002==\257\357\020\276UL\262<:5\373\273\236\010\034<!\371\224=\245c\274;\240t\241=\341\3540\275\312\372%=\311\314&\275\260\333\263<\206\r\036=\353\202\322\274_F8=U~\305\272\022AW=\236V\216=\250)\313<\334\343;\274\305)\263\274\256P\031=Ob}=Y\3756=h\203m=\230\030\225\274\310\253\353;\025\262\203=\221\212\010\275\262:d=R\216\202=gYk=>\214\325=\246\251\004=\\\021L=\272\016x=\035^\262\274\267\017*\275\336\257\302={j\032=\201B2\275\325\334\350;3v\312\275z 4=\233h\002>s\212\025=\273\222\211\275\036\216\023=\251\022\030=f+@\275G\374\350=9\314\241<\337\261N\275\237\r\365<\313\332\031\275\022e\266<\'\200%=\333\213\251=\213\325z=\342z\335=\203\224\000\274\224\371\351\273B\035d\275\341\244\301:(\360U\275s\271\201\275M\212D>;\367E=1\260\240\275\226\257y=\372\004\030>^\341\310\275>\263O\275\027\325\207\275\235\343\271<Obv\275\200\350\017=\317\312j\273\370\3149\274\340|T\274\357\236\302\275;\014\202<\3002K=<\344\311=\367D\255\274\324\265\264=\377\315\313=8Q\242\274\336\033N=0\320\257<G\234\334<\231\031\231=\327e\226\273\266\032\006>\363\2168\275\224\362\263\275\013\036\236\274\340\307\230\275\350\214\341\274\334\220\237\274E\376\212=\311r\001=\031x+\275\3660S\275\311\323\342<)\313\325\275\177\345\373<O\353\212=\277\322\263=\2112\003\275\236jf=\346H\235=\370\363\362\275\324\3527=V\001\224\274\331\365\\\274\025\323\214\275\203O\274=\306#\257\274\316>\353\275\r^\020=\353\306\262\273\215\243r\275\235\305\266;\004\255\254<\225\234\222=\026\003\203=x\350\306\275\244c\n\274\3048\317\2755\343*=\031\026\334=>7i=x%\334\274\376s=\275Q\345 >\263\007\251\275\341\3558=\360\026\302\274\010\306x\275\200t\205\274\007a\234\275\372{\343\273h\037\372\273\271\251\177\275\365\372\301\275\366\244y9M\311\222\275K\365$\275\347\245|=\005\226\'\275\264\030\005\275UZC=Y\342\376<\330|*<\253\207\205\274\22100\275\033g<<o\272;<\r\014#=1T\256=Z\257\354<w\251\235=~\304\243<*\221\304=\240\033\243\275P\270\201\275\352\014\270<\222\0210\275L\266\362\273\210\337\007=\2177\335\274\265%0\275\027\265\312=\006\304\367<\246k\025=\344QN\275\242%\242<\026Q\362\275\\\331\276\275,\277\017=}P\203=\361GS\274\217=\341\272#p\026\274\327\005\202\275xF\213\274\353\360\250=!\217\027=\277\000\305=e#\311=v\2731=t\0301\275\243\362\230=\274C\210<\275~\244\2744\342\027>\333\366\234\2750F\245;\373(\367<)T\246=a\2706;\027N\224=\233r\250;\230\231\225;\223\211p=\264\231\211\275\304I\010=OJB\275>l\337\2753\244\014<\364\244\213<\212\203\014\276\361L\264\275\310\262\001\273~\306\340<\031o\217=\205(\332;\332}\201\274H\350\333\275\323\0376\275R1\014\2762+\027=}L\375\273\264\320(=I\376\217\275yh\035=KL\213\275\275|7\274\377\033F=\004\333\263=Z,?\275\352\261[\275\2602Q;.~>\275\211A\367\274J\2543>\327w\372\274\363\265\210\272E\013\020>\274\272F=\377\263\001\276IJq\274\273\370\304\274\301S\240=\016\3572=\221\\9\275\201\203\315=\345s\324\275n`\016\273\357\206\371\274\025\342\034\274Z\354\275=\362=\250=\004\316P\275/\215\230<\306\365L\275\n\244\022\275\353\022\256=\262\255U\273\003j\371<^g\254=\344=\035=\335d\257=\\\212\254=[aT;?\301\000=\203\336\235\275TP\260\275!{\375\274\240\270\020>\330\367\022=\217Z\000>\264\3768\275\031K\"\275\351\236\203\275\246G\271=b\337\300\273\222\212\312<z\004Z<o\236p<oV\360\2749a\310<\373\250\277;\363\344\032<BV\241;-V\276=\331T5\271h\014\224\275\017!\333<H\037\205\275\022i\241=\332\264\211<|+\304\274\342\275\213\275R\267\216:\330\303B\273iK\203\275D\034!\275;\001\261\274\215\227\245=\230\310?\274\\oD=\014\035\002\276\204A#<\215:\250=\304\017\212\274H\261\224\275)}$\275\247^\337<\243\311%\275t\021y\275#\307.=zs\351\275\320\036\032\275\034\033\241<\010\314\026\275\262\223\260;3>\202=+\332U=\221L\304\274\020\014M=#xn=\323\007\304;T\247\364=Rh\207=\034\226\177\275:\344\000\273{_\256=\255\000\260:\253$\247\275\302\207\375\274y`W=\360\334\260<\223\350\224\275\355\240\023=hP\352\274$\256\243\274\333\247\362<w?\245=H\214\230=E\267(\274\233~\340=\256z\007=\370v\270\274\360\032\203=\177\023\224=\246\374)>\331\374W\2754@ =(\366G\273\231\022\034\275G\226/\275\271/y=QGx\275\177gq<\322\035Q=\242X\253=\376_\242\275\024\315q\275\301\323\232\274\355\010\362=`\1777\274\2032}\2757\264\027\274\215\302\300\2756\331\214\274}\331\260<\177N\234\274?\033\352<\273\350\275\275\347\216\362<lS\261\275\t\032\263\275\322\017\243\275\240@2=\035\234\351\274\247\315\370\274/OY\273\n\r\225\2750g\n=\203\301\206=\322d\021<]\215\271;\2074\305\274\013\352\311\274\351\003\325\275C$\242\275\317\236\t\273\335\032j\275\321\256\300<ju\323</#6=V\206\003\275b\357\251\274\246\236[\275\314h\243\275(\260\311=\233\363\227\275\3360\333=\017^w=\017w\037>]\327\014\276\334\306{\275\345Kr\274t \341<W\005`\275\317\205m\274\274*]<nu\337\271Ge\267\275\256l\030\274\202\373\316</m\266\274U]>=QW\210\2704Z\332<\210\362\247=\203\214\361<\016]\335\275\006\003\374<0\274;\275\0268\312\274\036\307\031\275kt\306<\"\265\336=r\277?=t{\314\275\366r\224\274\'>Q=\320t+\276\317\363\240\275\351Y\023<\241\034\t=$v\3559\306;\177=\314\237\221=\"W\267=\237\033L=[\240p\274\250\356*\275\327^\255\273\337\345\021\276\300f6\275yf\224=h\023\322=e\351B\275\205\373K\275\372\030y=1\233\320\275\337(\260\274\357\0311\275f\022\204<\035\374\362<\365\362\032> \017M>\225up\275\036\341T=\362\241#7\234\3133\274W\262s\273\351\222\344<\204\371 =s\363\315\274\374\037\252<\241.v\274\327=$\274\"\200\313=\274|\234=\004E.=~\346\215=r\302\033>\227v\240<(;T\275\372\347c=\364\035\005\273\276\261\020\275Ed\240<\346\261\200=z\2746=\205\232\033\275\333\353\022\275\177|]<\006\351/=%_\002>!J\340\275Z8\273;\274Z2<\034d\030>\370\007\251\275\006I\257<m\000u\275\373i\303\275\367!P\275.\240\001<\353\347w=5\033\265<\013\375\001\275G\014\030\275Z*\373\274\273a\225<D!m<\372\265b\275\217k\017=\220\352~=\034\3464\2756\360\203=B\313T\274\340\266\231=\353w\031=\335\000\367\274!\303\0078\205q\244<\nQT=]oW=!gs\275w@\265;\236\270\305\275r\354t:5;/\275*\203\352=z\346I= \331\210=K8T=~\304\023=\276T-=hAW=\363g\216\274r\362&>1\255\221\274\2279\205=[w\023\275\300}\005>\216v\003\275\213)\213=\264\264F\275l\n\n>2\314\247=;\274\214<\036\264\203=6\202\324\275=a\364=@\367e<\'#\322\273v2\023\275a\235?=)>\213\275F^\223\275\203\226\227\275\020\007\272\275\324\263R=\3028!=\376%g=\377{\226=\274\227\014<\264\275}=\002\341\304<\227\236h=\303\362\360\2753\313\022\275[\355\332\274\242\341\017=\244CZ\274\235\'\346;\020\330\'=\334\300\200<\203zy\275\232\223\017\274\317\336\300\272\346\205\227\275\304\204\031=t=\006>U\233N\275J\207\302\275\213\355\343\274\323\267\226\274ed\025\275\263\317|\273\002\037!:\200^\000=\242.\374\274=IP\274\316\207\025=\240,\235=W\325^<(J\016\275\241\205\337\274A\331\215=\215\252\024</B*\275\212Ye=\243\310\001\275\352ag\273\016\000 \2753\346\263\2731\271\241\275\336lf\274b\024\026\276\020A\337=\025\256\001>\320\033\323<\210U\341<(I\016=\006\250\342<\373\016e\275\315m\003\274\276\364\231\275\227\351\311<c\"\r\276\rp\323<\202o\r\275\370&\003>\243\363\252<^R\273\275q \207\275\353\242#\274r\010-\275\314W\254\274\377[\356;{\001\221\273)\275\311<D\253w=\020\002\353\274\264\261\010\274\255:\343=\355\026\000==\347B\275\0226\203\274\267\301\314<*\215V=t&\377<\342mS=\213\034\027\275$\025\006\276L8\203\275\355\303\237\275\026\274w\275\227\327\201\275z\231\215\275\222\021\205=%\275\017\275`;\350=3W\340\274\002M\251<\207\004\315=%\324\230=9MJ=o>;;\342\200\031=\337\367\373\274hB\254\275VF\271<\242\273\213\275\353\331\260=\000\017\266=7K@<n\016\220=X\303\274<\3243%\275H\224\225\274\025\026p<\0145[=\303\311\375=6\255\317\275m\245\306\274U\356\014\275C\367\343\274\370\020]\274\215\201\227<\037\200\232<\202V\330\274\361Fo\275F\001\227\275\273\"u\274\311\177\347\275d\2015=Fp\2679v\363X\275\204\365\362<\206\317\027=o\266\245\275\267\337\025\274\224DP\274\332Q\017=\311\361\303\275\304D\362\272z\307\025>\202\3510\275N\266\217\275e\245\261\274\264_::\366E\252\274\232j\225\275Q`\316\275o5\365\275\203Q[\274>\000T=\253\2173\273\237\004\224=$Q\345=\277\324\241<R\323\234<4\373\016\275\2268+\275i\220\262<\272\322\262<\233\341\232\275\013~U\275s\215\r\275\364\261;=o?c=<X\356=\023\237b\274\325\234\322\275\272\t_=)\340\351\274\320Z\030>O\222\354;\321\324S<[\250(=>$$=\370ce=\017%\236\275\255\375\034\275\036\364\324\274\346J/<\250[\376\275\373\354,\275\201\336\237\273\370\202\266\274\214\356A;\nj\306\2758\253\313;\343\340\230<T\337d<\034\302{\275\360\262\272=C}\214=\346\273\361\274\201`n<P\204G\274\nc\221=ZG\242\274\204X\n\275\355\371\376<\2610\342<\375\260\267=Pmj\275\002\330\250\275\3523\241\274\035;\247=\374\017\310\274\246\343\372\273\005y\363\273{\2060\2752\243\223\275\277\322\347=\303R^\275Sn\310=h\237\370\274\300\320\233<\035\036\352\275\313\207\033=\246\263\203<\020!\t=\274&\270;\354\272\334<\336(\000\275\t\031\003\275E\010^=\300\037\023\275\221D\375\275\343\025\020=`7\224\275\227\\2=]2\351<$\274\346=\370\177m\275U\023\201\2743C\017>\024\250#=\326\251\226\275\222\370E=\376K\206\275DH\014\276nL\263<\013\031s=JM\r\275\2369~=L)\366\272-\200\203\275\21662=S\3779\275\300\344\003\275\023\\\334\274\356\020\213<r\377\217<\"\266\340<\307c\025<<\346F\2759\177\343={i\366\273Jw\372\275sn\202\275\201$\016=~\'\014=\355\242\0359\371X\264\275\202|W\274\033\322\';\265\365\200=[nF\275\230\226\357=\260V\342<\257mx<vm\315\275\335r>=\244~\304<jW\335;\374\230\221=\265L\257=\311\032\032\274\370\260w;\321A\203=\335d\215\274\036;\251\275\346Q1<\\\252C\275\3748\251\274,VE=KH\362\275uk\371=\234~\034\274\342\341\227\275\014\035J=\020\210\216\273\3673\306\274\203=\022>\016\352e<>\2115\275\016%\215\275\222\325G;\340\024\004\2758\275\324\274Z\260\376\274(=\317<Ru\267<\347*\022\275\n\265\234\275\264\344\036\275x\362\334\275r\267\205\273\3012\036=]u\242\275T\"Y=\035\354\275\275\341\254!=\246\"\010\275\343\231\260=U\325\313=pE\243\275+\375=<6\241\216<f\030\202=\231\251[=R\365u;\\\247\345=\307\351n=Kd\267\275\236\237\361\274\326\221\342<b\215,=\234\331\263=\236\231W\275\352S\205=\031\034\244=$|m\275h\271\177\275\360\2270\274Y\315\304=P\014]=aF\220\275\3254\206\274\364s\311\275`\237\352=X\356\227\274\010\232J=\235\371\316<\204\240p\275\025\372\032\276ve\340\275S1\'\275\374\244\031=\347b\001>\204\275\360=c)\351;\317\023\257\274\336\326^;\005u\006=}xM;\241=\202\2751\275\224<5\202\335;4\274\366\274z\240\257=\362\363\334=\264%\230=\020\325\n=\2513\255=*\022\305\275\377\000p\275S\234\005=\301.Y\275:\376\271=1\321\306\275\365\267\273={\331\317=\222!\000\276\340\344E;3\207i=\305\212\007\274cUn=\013)\022\275\205v\315\275\026\0266<B\363X=\376h\202\2741\022#\271M8$\275\233\350v\273\204\211\220=\014\222I=9ZJ\2752\023\030\276\2156\324\273\256\004J\275\3378\204\275%vP\274t(\024\275)\003d<\241\006\212=\345\371\276=\032\307\245\275W\264o=\263\017Z=$-\017=\271/F\275\nT\272=\345Z\264\275\027\274\220=\\\223~\275\243\212N;\206\016\247\275\324\324\250\275\006\342\352\274\316\022\247\273<\352\260=\336\271\376\274\027\374\202;\355@\214<\r}k=\257\226\363:\343\323\036\275$\230O=\032y\200\274\210\363\341<\241\006^\275\"\374\201=ugd=\371\326-\275\204\007\242=T\241#\2753\340(\275\231\322K=a\355\031\274\023?\037\275&\3510\275\200xJ\274]p+=\307\350\256\274\304\225j\274\272s\035\272\016\006a\275\270\331\036\275&,e=dks\275\355\322\233\276\204\201\332=\263\257\303=\312A2\274\270kT<\370\177K<\264\313\252\275k2\242\275\021^\004\275a\355\325=pO\334\275\241\367\033=\374:\373\275\312b\264;\223\324\246\275@\026\320\275\335\002\305\271\312.Q\275\026&\314\273RPw\275E&\t\275\203\250\016\275\340\350x=\263\314g\274\215(\243=\322:\377<\356\201J\275\321&\232=\257\240I\274\026 \035\276\r&W\274\255\254W=\202\373`=\217\255m\275{\n\232<\017\322i\2758\235\257\274\374\2126\275\327F\361\275N\014\225\274\032B\260\274\033\010\203\275e\303f=-\016\022\2762t<=\023\234\213=\321Q\232\2757\357\307<f7\010\274\306a\235=\313\355\214<m\305\302\275[\262.\275\345\027\252\274\365\241\311=\317D\343\274\254\317\035=\214@\001=\0366\326=\211\275\306<\t\007[<\222\330\204;\247]}\275\n\234{=\274\202o=\360\263e=X\313\245\270\204\203j\275;\245\204\274\3763\016<}\273W=\303<\213<\'\031_=\022\274\024=\002\350\303\275\264\206\"\275\315)\366\275V\254\357\274\324\321Q=HO_<\350&N<\035\214g\274{W\013\272n\274\006\274(\2332=\347\322\222=\343\020\270=\343u\020=fok\275.P\006>\252\215\337\274\246\273\363;F\327\314=\261Jy\2740M\031\275\335\360\023>\032L\226<\324\3613\272=8\352<\217\020B\275\230\n}=\340\\\307\274\223\277\034\276#\033@=\366b\'=~\037Y\275[\301\r=x\3019=\'\363\017=\355>\005\275eD\202=t\205\203\275\242\221\202\275f/\252=\325\254\315=\374@\003<\207Z_\275\027\307\204=\227\346!\276\362\241\345<.\263\310\275\274\210\266\275\223 \r=:\026\n\274!\346j\275\022\032\021=9\334p\273\306\241\202= \021s\275\013\r]<O\334\216\275\370)\236=\237Vi<\363\200\321\274\006=\037=\005\377\365\274\224\nU\275o\177\003=\273\231N\274\3349\237\274\220\323?=\375\n;\276J\353\377\275?X6=\351\237\010=-\337\246<\330\217\204:3\243\r\275C\010*=\363\320\201<M\362\351<Oj\266=\002\235\306=\370\033\263\273-\246#=\003\212\345\272E.\030\275\244<\241\274\357\376\232<I8\004\275O/t\275\366\005\322\274{\037\002\275\035K\260\2735\206O=\007G\233=\274\336l=F\014p\275\325\305\372\273\236\327\372<\204K7\275P\373\216<>v\003\275\0273\361\274\211\323\213\274\351x\024\275)\222\327=\025O\014\275:^}=e~y=\301\203\213=\343\323\300\275\247\331<=}\020\017>\026!v\275I\301\201={q\316\275GQ~=M\373m<\364\363\314:f\225G\273\223B\237\275m\327\221\274i\262u<\223\006\346\273\324!\004\276\333\264\242\274ew%\274=\235\246\275Wq\223\274!A\307=G\332\236\275\367\005\254\275\3473\222\275O\365\322<t_\000\275\034\214\205\275\007\247F=(\211\353\275\264\275\230\273\347\323\221=\377\375\273\275\002%~=UUC=Zy\312<\344\241\205<2\346\212\275)y\301<vpq\274=9\214\275\323\213\202=n\352\356\273\272\315z<\335R\205=\033Q\363\275\311\321\251=\273\304J\274\330\026A\274\217\236_\275y\211\177\275\367\026M<4\266A=T\\\213\275+\315c\275\345\352\023=\264\245\332=K\013y\275\257\205\323<\217\222\202\275\260\250\200\273I\237\365\272Q\373\213\275\360S\335\274Gr\310\274ae\037=\251V\221\274~\\\000\275\221\250*=\237d\243=\240\237\306\275\333U\032=\267\252\005\276\005\221\271=\026}\272\275i\023\345<\247hA=q\272\002\275vk\206=\024\361\302\275\341\035\225=\002\220\212\2747\013\020\274W\300u=\267\253\251=\320|\242<(\365\362<^H\226;@\023w=\276q\362:TL\315\274\344\261\000\276\177]\320\274\021\202\345<\241\356i;\230\255j\275Y\266\024=\0353\312=\227\246\367\275\321\010]\2758\311\032<B:\242\275\331\364\215\275*\0109<G\035\350\273[f]\275CN\214\275g\306\260\275-3U\275\341J->=~\362\274\254i\277\272@\273\217\275\t\265\253=V)\\=8\003\025>\255g\347\274_\231*\275\325y`\275\341E%=\356\210\212<\315\036\024\274\373\244\207=Dp\216\275)\266\234<\321\026\021=Q\274)=\276\253\t\275\260\020=\275KL\022=\332\017a<\217\355\314=\231\345\274\275\301?\"\276-\340\325<|\201\026\275{\314\331\274x\232\302\275\325j:\273\334\263M<\231\267&\275\306\032\217\275:Q$=P\264B=h)\244\274\324\262\262<\037\202\261\275\275\201\370\275YV\213\273Q\330\206<)w\250\275\301\342u=\253&\300\273\346\332\273<\027W\r\275\355Y\364<_6\251=^H\034=\333\277l\273,\203\026\274\374\016\035\275\033e\305\273kE\024>\313\332\270\275\252n\312\275\224\rq=2mg<\n@\253\275G\272\302=x\211\246\275\323\t\234\274?\212\204=?\255\203\275> \006<\374\031:=\356\206I=c\225\001\275\257\362\255<\216y\367\275i\244I\275q\321\352<|\355\212\274y\351\005<\276Z\313=\315\361\232\275\226\302\375\275\303\232\n>\212\221L\274`\316\244\274mIb\275\202CL\274\367\251\t\276\255\256;\274A\362\010\2758\251\332\274b\266\201=\024bE=\276\373\350;\232\340\357\275\"\202\020=-\004\245\273-\004\005\275\236\261\177\274n!^=P\310\030\275\221\225\237;\214\206A\272\177Xy:\224&\217\275su@\275\355\313\330;A\221\344<\007\312\003\275$\376\324\274O\234\376=\337\237\346\275\360kE\274\221\217h\275\203\342.\275\014Fg=\265\204\025\275\277\251\261\273\304bZ<\223\256\030\273\226R\004\275\357\314\327=\247\262U<\263y\376\274\267\020\203\275\367J\027\276z\350\226=\314\376\211\273\231\313\217=@\373\332=\025\177\346=\213\212\207\274\217W \275\267\367G\274[\201Z=*\374\304<\221\005l=\323\357\315<\347\207\t=}\341\235=,\306\017\275&\025\013\276\215\314\0259\235\032\002\274\2531\r\276$\275\307<4\204|<e\353\276\274\300\362F\274\372\376\010\274\332+f\275\315\336\265\2750\337\000=L\320\262=\022c\207=\364nO:\014\010^\275\007\305\023\276\274\030\023=*-\367<\277\313\232\274\333)\217=y\310\203<\247\021R=\354(b\275\231;\332\275\330\230\203\275T\037@\275\255R?\275\276\372\262\274\003\320\033\274\022\350\231;\344\020;=l,i=\263S{\275\033\361)\276\364\347\253;F\360\273\272\270\212\214\275\254_j\275\266\367\352\274J#W;vi\272=\252y =f\336\241\274\305\027\025\275\373\256\311\274~P\226\275$f\275\275\215eQ=\202)z\274M\210\337=\375\330\206=\326\313\241=_6\205;\305Xq\274\253=\344=\353\360\343\275\013d\343<9\236\257=P\270\250\275\r\336\313=\203\356-</\360\007\275@8\255\275_\267\220=\210i\366<\035\016\343<&ZX=\t\345\303<\326@\310\274\233\332\357\275\230>5<\200\r\352\274\215\360\343=(\353!=\311\376\342\272\205\010\357\272\202\000\323<\260\354\206\272\271h*<=\314\205\275\272\220\256\275\017\007!\275Jv>=G~\203==.\210<V\027\027=\317\036S\274o\2639\275\330\251\303\274yK*=\034\272U\275\271.\255;a\024\037\275\000\361\244=0\273T=%1\271=az\254\275\253q\340\273m\364\256<\016M\261\275\261\363y=\320&u\275s\261A\275\002u\262<\243O\335\275\216\361\356;5\341\020\275\271<\214\273I\363^=\376f\271\275\254 \253=\200\022\215=\304\326\247=\302\024~=\205Z\271:\351\307B\274\311\305\021\2768B\225\275\255K\355<\032%\247\275\340\327\305=\305t\226<%\352\016>- k<\354\034\331\275!\017I=\207\246\"\275\375\337\303=X%\217<\252*\250\274\324\037\020\275\031\214\375<\246rI\275\360\243`=\333e\345\274\246^\232=yh\211=\001y\341\274\257\246\247\274K\2516>\036\003\213\274\272\276\254\275\326\nK=\372^<=\223&\206=\276D\330\275FG\352\274d\376Q=\276\222}=\302m\010=\r\301\312\275\034\201\264\275\353\211\001\274\236\223\225=\210\000!\275*\322\230\275\212E\306=\370\251\242\273\326\036\246\273n\317\r;]L\022=\342\226\215<\277&\005\275\225i\303\274X^\340;\267t/\275\0261\244<\037\356\272\275X\272`<\327\254\031>\221\003\267\274\326\333>;\315\215\314;\374A\021=Z\210E\275\021E\220\275j\304\253;\002\310C\275\310\307\202=\332\274}\275!\337\356=\365\304\006=\377*S=\260#x<\357\236\224=\243\203\021=\242p\233\274\031J\200\274\3735\177<\340H\007\273\360\337n=\317N*\275\217\225\326\273\332\231?\275\305\267T=[\016e=B8\"\274\313\234,=!\214\253\2759\023V=\361\346_<q\334?\275~\277\033\275\375C\212\273n\261\016=\276\260!\275\263\032,\276\274\207U\275;\354\032\276jHS=\2311\212\273\255YB\276*\225\005\275\343dH=D\321\031;\206\250\302=\223\312\331\274\263\327J=\017\336\t>\322\252[=\327\354\002\275\335\001\214\274\343$\034=a\363\352\274,\327%\275\302[\237<QKQ\275\353\026\037:3WC\274Eu\377\275N\301\n=\207\237[\274VU\240\2742\032\211=-\021\326\272=\300\031\275\024\366\030\275\367\245\247=?\2572\275r\316\206\275\207\267\\=\200\222\264\275\300\273\210\275\364\217\020=\200\2153\274\036\014\304=F\371\370\273\013[\223<\324\367\335=\332\014\037<\200B\262\275K\273\336\274\036\351\034=\341L%>N\323J;\214\254\207\275\024\017*\275\n\205\323=M\223\250=;\333\303=q\n_\274\025\034\264\2758\237\316=`\364\216<cd\014=\337\r\"\275<\222\324\273{)\201\275\211\000\253<\026$>\274j9\260\275\254\234H\2758\003\005\275\037@\026=\367\020\234\275\274\250\333<%\201\311=m\204E=\245\330I\275\251\363\234=\341\336?\275\245\nH>\233\032\340=4\276\366;\203\025|\275\271h\217\274\317H\\=\'\217\014\275rr\227\275\251^\324<\007\356\202\275\246\227\245;\276\213m\275\007\361|\275\326\023\243<\306\037\002\273(\016\340\273\247\216d=\225\374\225=\027n{=\362\314\312\275I\036\247;+W\352;\216DY\275\263\334\016\2755u\202=u\241\017\275\307\2323<\314\335w\274*\313\314=\022\013\013\274\202\365\307=a\266(=\376\235\207<\354Z\037\276\013\341\227\274\007\204\251=\230\220\\<\276\233\026;\366\033\224\275\236\321\027\275\206\360\272\275\010\022\201=\354y1=}\007\276\274Bzp=\334\205l=\223E\221=\325\325j\275\331\232\205\273\nv(=i\240Z\274\335@\365<.\320\256\275fR\311\275\000\020\273\275\330\r\276\274v\353\245=\3054\024\274\257\254\023>9\254\375<^CJ\275\254\306\225=\337\003\'\274p\277\237<[\235\207<6\373\273=7\217@<\347\367\365=}\246\357\2736j\263\272Vmv\275/\352\276<\235\375\027=]\253\034\276p\222\366=(\315\332\274\032\207x<\225 \201=)\177\017<d\336t=\311\316\242<@\356j<_|\302\274h@\232=\270\212\300\274\224\226l=yg\254\275U\376\250\275\271:\210\275\207\240\027\275\375\320\327<\370\312u=\305\275/=\372\253X\275\270\337I=\326\211\214\272\3130\325<\r\305\356\275\321\023\260\275\r\333\020\275\005\005\t<\010e\253<\366\215\r>\343/\210\275\347\203\360\275\201PK\275\243\357D<\203\310\215\275M\026\032<\032\254\022\275\007\353,\276\\4\346=Cj\312\274\2102\371;I\246\232;;T\336=\367\215:;\003\3007=\003\225\250=B\377\316=\022\025\377<\010\340M=\273}.=\202\247X=\262\1777\275\320j\202\2753\2743\275\216\372w\274\242\365H;\020A1\275\242{\036<.}\252\275\344\275\214\274\377\2430=\010|\201\275`&\\<\336?\303\275\277\327\252<\'\234#\2754m\243=(T\372<29l<[g\330;\035\353?\275{\242\n>\014\tW\274\001\2310=\002\212\215\275HM\206=\214\232\374\274\014Q\317\274@\326\270\275x\351\264\275\212\251\256<\324\342x=#\007\205\275\237\234\335\271\304\333\022\2734\270\014=)L\216\275\225^\301=\336G\336<\307\235#\2754\262\230=\301{\365<3\r\025\275\033y\244\274\014\302E\275\337j5=\370\321\367:\316\226\236<`t\013\275\214J\320\275\315b\230;P2\245=\232?\351<\376g\010\275v\203\306\275bb\224\273\376=l\273\331\331\206\275\234\263<\275\311\235\261\273\035\301,\274R\022B\274\246\034S=\341\"\343\273\237\233\253\274Z\334\r\274\254\232\013\274\270\2565=\006Nf=\233\260\221=\002+1\275\3600,=\377\200\247\274k\251\n>\2344S\274%\t\345\275}c\221\273Y\341J\274\213\027\332=<\212-\275\365\017\374<\277\217\263=\272\324\212=\005\326*=\223\n\031;\370\260<<\235\314\225=1N\217\273\351NR\275\370\3770\275DZ\324\271\334\261\325=\215A\366;\227}\344\274w\3119=\303gZ=W\367P\275D\203\223=S\250\220\274\376Ub\275\300b\355=\242\002\220=Ndt=m\2053\276\322\034\236:\355\252\271=\246\222X=_\364(<\335+\317\272\004\342\016>\303\326\221\275\367X\206=\034\244\324<\247\302\311\274\255\023M=\010\307\211=\2728\"\273l\255]\275\265\324\323<E\003\300\274\202\244\r\275\302kX<|5N>o\203\023\276L\313\356\274\214\306\322\275\357\'\311=\346\226\311=G9\224\275\303\264K<k:\202;\326\351\363<\036|;<U\313>=\341SH<\030\"\224\275\315\363\364\274q\025d\275\312\252\221\274;\177A\274\254\224\321<\352\2202\274o\377z\274\377\n\322<\212\233G=2\235<\274Y\254\345\275[(\256\275\304^N=\350\tu<\312\2636\275\2160\251\275Fl\273\275@\3400\275\0029\225\274<W\017>\366\363\033=Cv\013=\376\215O\275\261\203\303=\344\'\231=\330C\254\2732\014A=\327\3706=\352\3433<\312\342\307\273\243_\357=\201\222\346\275\277i\344\274\232:2\2749z7\275\334\030\212=5\025\201=\311\021\225=\335=\252=\223u\005\275>\311\n\274$\270\301<7sS=a>\252=\247.B=i\333\301=*\356\267\273sYy=\344\027\260\274\366\244K<\211\366\256\274!M\254\273/\366%\27538.=\n\373\022\276\207 \207\275\334JQ\275\330F?<n9{<\360\337\031\276\257\344r==\017\205\274X\352*=dUl<\003\313\226<\340\023\270<\321\317\025\274\304K\227\275\352K\214=\222N\276<\251\340\031\275oz\341=K\226\345=\264\2561\274d\334G=4!\315<\274\271\223\275\023\277\320\274|oc=\202\344\202\275\205\t~\275\246K\362\273\220\tp\275\364\317\016\274r\273\241=>\205\236\275\211Hc=\017|\377\274}\364\302\274^C\316:c\377\020\274Nc#=\002\2672\275\225\317\364=c\364\022\274\205\274\222\275b\211\014>\373\010\010>\004\316\375<\225Z\005=\210l/<\306\325\022=\206\244\020=F\303P\275\032a\375\2746\212u=Q\313\375\275\322\355\332\275 \3340\275\027\323\252\275\204D\221:\224\313\273<c\016\222:\323[\371\275\302\235\203\274\266\032/=\000\236\325\274\357\\\262\274_\314\230\274$\257\362<\276\251\202\2759\217\355;\200~\255\275\333\007\330\274\244_4\275\345\251\363<\305\243\205\2752\344-\275$\212y=\002\017\213<\273\207\211;\314!\270\275\370\265J=F\234\305\275M\227\251\275\271`\t\275\351\344|\274\343~\220\275\377\306\006\276\363\tj;\266W\331\2733\t\250=T\332\217\2742\242\221\275\277]n=Q\037\272\275{3Z=Y\370\370\275KLK=\257s\210=\361\306\n=E\250\263\275\360\302\233\275\316\371\216=\2546<<h\352\354\274\036\364\237<\364\222.=>:F=\242\235\027=\244%I\274\010\207\225:g\272\225<\243\'\027<\344\357\236\274\241\305\253\275[\353\037\275d\224\330<\370?N\275\301c\220\275\331\033\261\275\352h\"\275\300\254@<\022\014\342<\020\366\264\275@U\000=\2346i\272%D\036\276P\270\255\275\203\007D=`:?=\243\276\224<\032^\323;\257V5<S:\032=\005\200\266=\313;\267=\344\000\225\275\3008\270\275\301\263\000>\265\2434=\333\rU<6\327w9A\213}\275\036\246\254<\212\035\305\274\347<\252\274\036O\230=5\322E\275\352\230\037\275\ti\206=\337D\001\275a3\303\273#eH=0c\344\274\377,\307<\031\027i\275\245s\325\274\310\2175\271`\350b</\036\253\274.\272\216\274\276u\255\274\320eL\275\321K\302=\253_\325<\235\322 =\257\202\277=s(G\276\010\261\022=\352`\020\276\005\245,<\361z\005=\236\375\255\2740y\245=m\"\360\274\013\372I\275bX\001\276\026MY=\342\211 <\333\230\000\276g\312\031=\255\n\253\275\302\237\001>\352K\267=\025P4\275\t\000\374\274\213S\347<\304a.\275\355\013\r\275nd\364=)\200\332\274\255\247%\274\353\304l>9\241\345=\322\375\250\275\230z\374<\207\347\307<\3740\024=\215+\202\275\307\202\203=\343O\225\275[\036\214=\204\027\213\274\275t\215\275{<\235\275\312\000\032=\313\177/=\2403\334\274G\363Y\274\nq\334;\211\254\252<_ \210=\304\256\246\275\331\335F\274J\350\264\274H\266\002\276\303\006\301=\323\343\374\27491\304<_\343c\275\216\232\300<\r\002\030=\035\353D=\271C{;\305\212=\274\317\025\263=hu6=\335\326\023=\254=);]\307\353\275\263.T=\3375f=\231\372\243=\343%\035=\007M\363\274\241\2445=\201\\\216=}\037\350\275\226GM\274\200N\250=\222u\221=(\3108\275\202\332\031=h\001\002\275\3231\217\274\264\0139<\342bH\275\274-\207=\351\352\251\275\257\226\342\274}\205 \275e2\031>t\304c\274T\317\021=\236\244\370=\236\004\257\274\335UT=\315\374\234\275\022\236\036>I\353e\275\300\261\206\273\2344\356\275\345\n\227\275\024,,=&\200\314<\321\275\254\275j\277d=\202\336\223<)\025\201;\262\305\356\275\216\317\2729*\326\270\275\213\300\257<\367 \t=\236\224\002\275`\237\230\274\372\274\253<\016\257\004\275Z\262\236\275\251\245)\275Js\325\275\257G\205=\354\235\206\274\017\353\343\273W\256K\274\236\240\021\275\227\272\267=&P\203\273\021\266*=i\235w<.,!=q}%\274-\237\210:\327V\254=\306\204\374\274\020oJ=\270\245\245\274d\221\003\274L\220\207\275N\300\210\271tk\023\275\0310\331<]\3616=u\202\256\275C\205\310\273#\256\307\275\363\007\277\275\205\236+\274\203\227\003\276\330\262\246=}\276\213<\340\272<=1}/\274\026X\372\273Y\321\021=m\016q=r\003\\=\270u\217\275V\352\242\273\376\366\024\275\215j\210=k\256\375<\205\211f=I2\231:\277V\317\275\324b\340<\316r\023=\317{3=\321vv<\t]\006>\235N1>\334\310Y\275\036\0030<2\251\r>\005\020\357<\362\350\250=\263Bw=P\005*=\372\237o=\243\211I;$4\207=\221\036\203\274\232$O=\255J]\275\246\353\024=\351\363\331\275-k\302=\315\274\212\274\336\004X\275\337\340\356<\020\013~=P\204W= n\224\275\211D\274\275\307;\010\274B\013\230\275\324\231\337\275\036\373\320<B\335\313\275L<\336\274\274g\371<\343\322\250=\273{\270=0\270\266\275\302We\275X\021\220;\307\273\202\275uB\243\274r\3677\275:\035\375<,\021\356<\250sM\275\343\330 =H\256^=\301*X\275\037U\253<\330l\242<C\270\273\275\220\267,\275,r\225=\376\004\202=\315\216v=\006\330G\274cT\257<5\254\032=\244@]<M\206\303=\r\215U<\275\354C\275H\266\204=K\2636\275q\211\376<\201\005\334\274X6:<a\245\243\274\276gF=\3018\027\275\344\223\246=\300\205E=\275\200\216<T\270\231=\355\037\274<\215\307S\275\222\225\237<\022n\004\275\032\271\243\275\344+\341\275+\365\255\274\026:\032>\354Y\310\275{\315\363\274\216\376\221\274\372\264\034=\221\364\002=\020\365\242\272\320\267\277\275\264>\334=}$x\275\344\337\006>\244\036-\274\352\357z\274\001_\356\2756N\204=\n\034\t=g\341\n\275\333\317d=\307a\372\275\222A`=\255\016\005<\241\273,=\243\020\020=\324o\211=i-\357;\331\371\315\273\211\252\314\274\320\362\201\274\334{\230\275\361bc\275k{\361=\335\266P<uK+\275\014\325k\275\3070\257=\3150\361=\342\333\003\276\307\271\312<\2625W\274\356\253\323\274\020N\337<\244\320\311<\334W\242=N\240*>\027c\335<\250\372\221\274\260\177\245=\375\366J<;\332\223<J\241\003\271@\007>=\025<c<|(\212\275?~\244\273\211\214\347\275\237\216\263\275\271Ts\274\202\210A=\337R8=\354\370\337=\010:K;P\316\347\275d\031\310\273O\t\232<t\306\240<\032\302\370<:\2216\275\217\277$<4\370-=2\255\027\276\007 \265\275s\230\035\274\314E;=\324\307\220=\222Z\237<D\021\367\274\267\234\004\275\016\303\217\274\343\320a\274\210\325\303\2758+\261\274\355\332\3369\201\200\251;\252\363\300\275N\323\271<\254\312\216;\232\035)=i\256F\2763\3542=go\246\273\323\201y;)\337\364=\276\346$=q\'\206=X\226Z=n\320:\275\352\340+=\306cu<\347\326Z\275\2477\237\275L\357 =\300\023\233\274\230\312\220\275\252\033\013\274u\364\226=Q\254`=\370\035\361<\200e\014\2753\243t\275\243\032J\275\247\210\r>C\376\266=\273\031U\275\022\364\245\275K,\334=l]\371=-`k\2759G\217=\256?\371\273\361\214\016=,\326\225\2758\344\317\274\344BD<<B\205\274\355sr\275\023\264\204\275`;\363\273\014U\023>n\021T=*\000X=cb \275H1\234\274\204\024\215<\330_D=@\300\260\275@\224\032=\240\367\232\275\027\004\222=\2121g=n\213\306\275\241\206\013=\000p>=\340\316\223=M\277\306\275\007%\'\274\206\031x\275\370\002\324=\251\350\351=\250k\237\2750>[=\230\313\357\274\270\342\207=\203\315\234:\003\201\020\275\316h\025>\351\227\241\275\034\001|\275\267\265\231=\2018\027=\031x@=\014\341.=\351\350\324\274\031e\262\273~2\207=\262\325i\274\r\247\232\2748\223\266<v\236[=D\353\236\275W0\213\275\\\310:;\273\352^<\212^\225<S\003]\275\271r:\275-\360G\273\334\251e\274t\270Y\272\243\243\273<\326d\324\275\002\350_\275\013B\203=\210\372\341;\326;[=\252\016\333:\364\361V=\272\316j;\375\350\232=\223\354Z=s\024\302=W\307\002=E\013\207\275m\032\347\275;\315\327=\201m\004=\345\001\272\275\033\271*\275\254\343\003\275\336\341\033\275\216X\013=s\306\230\275m\023m=\202\201$\276\031\262\330\274J\355\245\275\021\215\331\274:\320\343=\022\375\023>V\256D<\t\016\010\275\030\273A=3\"]\2757K\214=\342\201:\274Wn>\275#\250\251\275\201>f=\245\\\036>\t\324R=_\017\252=\215s\206<\367)\366\274\234\372N\274\330P\020=\026%\320=Lf\261\275v\377Y=\200\243L\274\204Q~\275\362\331L=\037\330\327=C\017\200\275\336J0>\354\271\354=\307\345\345\275\032i!\275I\270\374;X{\264\275\000@O\275\030\2154\275\276\354\226\2742\342\227<\337\203\232\275\'We\2732\307\211\275+\362\377\274\013:\020\274I\350\003<C\217\007\274\343\307H=\350\032\360\272\202\366\025\276\362\271\274;\200uD\275\335D\313<\004\262\035=\0105\034=\023\216\306\274d\003\270\275\215\335\303<B\023\255=\017\362\r\275\310\254\010=\025\273\305=\\\022\005\274mI\002>v\237\007=\214\007k=V\314\252=-\000\303\275\267G6\274\361\372\345<\'\245\207\275\336\367\241=L\027q\275\304k\345\275\276\261\220=5S<\275\262l\\<d\214m<@\t\371<\245\253\020\275\255+\013\275\315\217\273<\366VK=NxY<8\203]=2\250\306\275(\356z<\273`\273=\327\010O=,\037`=\354\375\325\274\252=\203<(5I;\202D\004\275\023F%=6~\005=ZD\325=F[\030\275\310Bc\275\266\305\347\274\374I`9_\365\033<|\252\254\2753|\207\274\\\264\257<\364\300\204=\366\371@\274\013\333\310<\343\252\000\275\0029\233\275UF\315<\313\332/\275l*>\275a\246\025<\200\026y\275\314\260\232\275]\224\003=9\237G\275\324\217\003\275-\201\335\273A0\003=.\027\033=\224\215\304:\033p\205\275\233\323\214<\216\320n=\264N\333=h\313\230=\330\347\224<H:V=\330r\223=@;\313\274\266\217@\27594F\274\005I8=\006!s=\"\020\021=\354_h\275\315\231\023=\372\014\001=#\340;\275L\242$\275\254e*\275\200\254\235<\275\211\324\274\327\337k\275H\036\300\274Wr\224<@\377\250;f`K;B$ >\205\263)<\302Cd\274g\345B>\335\375\"\275\333H\336\275\300G\222\275q\351+:0\365.>h\033\277=D\206w<\363\'L<\303\312\275=\212J5\275&M\017>\260Hx<\202\370\310=\222\256\336=\023\314\234<\343\241H=\020*\014>\316\t\267=E\221\'\274\300\345\245=q0\267;O\253\316=\024\3739\275a\334\333<N\327k\274e\367\263=\177\363\2418b\366\034=>-4\275j\016\212=\213\367w\274E\265?\275J\331\301\274\250\321D=\364<\364\274\264`\247\274e\344>\275o\226s;\372.\013\274\341hz\275\307\345\022\274\317\350\000>\335B5\275\217;\272=),\240\275Ud\007:\210\250d\275\246\223\347<\222\206\203\275#!.=L\206\215:\244lH=\254\211\316<\337\272\\<\276\351\340\275\327\374m=\3235\333\275\022\026\214=U\264\303\274\n\227S<\013\306G=L;\213\273\035/\232\274E<\'\276\212U\023=\274\236\237<YkT\275\000G\014\275\353*\303<\r\277q\275\335\373\210\275\342\235\'\275;o\010\275N#\202=!\031d=3\300\230\275\337\"X<)\263\211=(\302h<\267\317\236\275\3073\255\275\t\017\225\274N\371\202\274\272\223\321\274>\235\246=\013+\177\274b\335:\275\227\031\t\275\3129\202\275\371\350:=5W\307\275*\327\275\274\367(\010>Z\374\226=]\017\001=)8\021\274u\324D\275;\t&=\304\233\323:q\272\246=\222\273\361=|\036u\274\372*\213\275\370[\000\275\tq\257\274u\016\221=2:\210\275*\374P=\274\255\014\276\006\340\243\274\021\361\327=\300\355K\274\3438\032\275\3012\337\2754\306\346\275\271\261\267\2746\030g=`\330\014=\351\332\223\275\220\024\301=\267\260\n\2763\261\320\275\006\267\024=\320V2<\243\373\276=Z \224\275\357\325\271<7\204v\275\244\003\327:\301z\177\275?\311\024<\277q\253=\325)\277\275\227\312\255\275\217\024\373<\204q\237;\244K\r\275\271\276 =\363\306q=\344l&\275~\277\227<\344\3672\275\224\223@\273\224\022\337<\262\036\021\275\367\333\007=\360\372`=\321A{\275\253\\\033\276\177\371\222=\270\215\250\275\227\234I\275&C\237;\032\311k;\357\005\036=\000\304\001=\300\214\316=\241\307\326=j=\240\271Uo\220\274\346\335\207\275&A\261=J\204.\274\2366\242\275R\321\312\275\220\310M=\003\353\212;wJ\307<\203\017\225=\273\251:=\234hd\273h\023\214<\2326\261\275\356\366\206\275O\233\310\274\022\242\250=\276W*\275\370\007\262=\251\231\027\275\204\373H=\306\301\241<\024A\321\275pV-\275\344G\035<\322\255\r;\303\271\031<\221\023\337<Q\223\243=L\220\246\274\253\005\371\273\363\013\340\274\216\255#<\'$\224\275\211\221W\275-\274f\2750:\035=7M\"<\022\260.\275\271\274\273<\206\205\"\275\361\376\006\276\027\3722;Y\347\000\275=2v\274\373Y\323<iW\346<\373\030~\275\320R\326<8T\221=\271V\255\273\013%\215=\300V6=v\353A\276N\314e=\014\264\376<b\230R\275\030So\275<\216\270=\177\007F<\321\267Y=h\242z<\021\032\276\272\247\252\205\2758\330\327<q\306\352=d2\217=p\006\026=\276\227\260=*\334l\275WG|=\354YE\274\031\306G\275\002\237\256\274Fh\232=\304\013\030\2756\215\006\273\222\370\223\275\350\034\017=\000\322{=\350\370\206<ylF\274-\361\243=\362\234\026=*\300\355;>\0320\275\371\234v=\263/0=\340\354C;/\327\\=\306\n\205=m\337\027\275\304\302.\275\0107\333=\304\267\245\274\232;l\275\235\356\017\275R\330\246\274\026\\\253=f<\273=\030I\216=\217\320==\036\362\336\274\266x\001\275 \363\334\273\203\277\237<Z\344\341\274g\304\355\273\365i\330=\2631b<H|:=\316\232q\275<\313\300\273]%v\275\213\311(<\341\323\265\275\t\316\253=\010`\331;e\216\026\273\333S\307<\353\007E=\344\213\001\276\366m\206=\237$/=\260l\301\274x\342\270\274\362\303\372<\0255#=b\222\344\274\212\177\322\274\256m\217\274YD\301\275\024t\255\275`\245x=\250\202\030=\005\211v=\001F\">k\376\232\272=O\273=\367\227~=\210K\270\275(\202;\276\231\004\215;\224\240\020\274\325\263\372\274\272\'\354\275n\036\352\275\\\376\032<\345_`\273u\351\316=\010\312\210\274\230Z\364;N\026\354<k\024\256=\006w\265\275F\241\337=d\014\342<C\306\216\275%jW<1P\r=\306\n\236\275\327g\207\275\312J\007=\305\252X=G\365\032<\211\327\342\274`\323#=Q]\365\274t\200\214\275p\273G\276\0015P=\365\276\001=\217e\270\274\272\013\227\275y\322\341\275\334f\332<\355)\032\275\325\233\356=z\261@\275#\0232=\025{\251\274\265\306\230<5\266\361=E\236$<\250\320\024\274\372!\'=7\323^=\326;\336=M\211\267<\021\275\226\275}Z\006=)\357\303\275\223\020@\274X\3752=\014\3765\275U\373\302\275\261u\363\2725\334\027=\300w\345=m$\311\275\264\017\304=\2127\235=q\345k\275\023\037b\275\360\260\204<y\231\262<\273\206i\275~:\320\275\362\222\"\275+\363_=\236\373b\275\271\035/=\300\337\320\273\010P}<\273\321\030\275s\301C\273p\343\267\274\022\367\203\272.\327\222=\\\242\331\275\003\347X;#\250\374<\004(o\275-\221%\274!w\035\273\244\'X\273\300x\257=L\212\365\275U\014;<+J\326<\375\2660=\321\363o=\276\321\204=3s\217=\204\317L=y4\235<S\323\004\275S\342\251=h;;\275\366\036\303=\230\342\213\275\304tm\275\372\270\307=\361B@</x\036\275\034\307\202\273|G\264=\376\344\211<\301\231\017\275l8M=g\021\213\275\323_\273\275\254x\002\275E\314\027=\207\362\215<\257f\300\275\204\375\324\274\233\004\230\274\264\002\035=\253\035\t;\327y\237<\006)P=\004\017\234\275P\013\307=\231ua\275\323\204\216\273.\006\242\274\366:|\275\360\217\256\275?0\002\275\271|@<\346\375\"=O\003\240=[>\226\275\225\037\313<\032\010\002= %3>\t/\270\275~I\272<\217\352\355\275),=\273\353*\236=fh\325\275\016\305\271=u\222\376\274k7\032=\307\206\032\275\230\322\302\274h8\247<Y\320S\274*Ks\275\r\237A\274\251\231<\276\260`\016\275Q\200b=\234\255\\\275\223\322\217<\375A\r\275\036\243\211=Z\342\014=\232\200\364=/\202\374=\216\307\272;\n%X=\224io<C\377r=\254\262P\275\231f\304\274\026\221\277;>_%\275\016\272\001\275k\225?\273\010*\t>\030\"\222<\307\214\272=&\304\327\274G\010\303\2740\360\302<\203\311?=0\255\t=R\315\221<\361\326\267\275-\275\026\275\344\037\023\275+B%>\220\001]\274\333p\204\275M>P=X\3473\274\302f\346\273\350d\273\275E)\203=\207\001\323\274\204\324r\275\204\016\247\275iY\276;\264\246\220=\037M\251\274U\246\n\276l\\\354<h\353\264\275\271\'\370\274\326\002}=\324u\221;\270\177\336<>\315\204<\2301|\275\237\226R\274[0\002\275\357@\n=\245\332\277=,\274\203\275\036\221Z=\035\374\207<\336L\347=\r\030\216=3\361C=\320\223\230\274\235\277.\274\272n\017<\226\341\210\275\207\"\003\275[\264\256<L\340A\2752/\001\274\rT\310<,S\260=\250\303X=\314+2=\346\027#=v_J\274\203W\373\274_\303\276=#\370m=\255\366\024=\347\020Z\274\207\215\225=uL\307\275\332\237\313<\246\331\204\275\302\263\205\275\031W\014\275\200s\276\274\366\270\216=~%\207\275\306&\027=\227\203]<g\343A:\026e\023<Y\364\"\276L\250\305<!\2069>\376B\252\274\221?\023\275g\026\014\275L\261\331= \022\234<l&2<\301\001F=\211\373\344<XL\307=\253)\246\274s\233\"\276\213k&\276\226\270{=\330\234y<U9\306<$\237\232<)]&\275>\252\212=\367\256b=?m\005=\364\330\337\274\007\000\223;j.\226\275d\250N\275\232\265\340<\034\215\215\274^;\312=\266\210\3739\247\214\324\273\310\322\360\274@\230\"\274\334\254\230\274z\346\240=\363\205\362\273\240-\014\276\010rk=\276\254\345\275t5\341\272\242\211 =\222bZ=\271\253\005\276\016\306\204=\0319\010=Q\237\030\276\204\223r\274{\210s=\353\033h\275\222p\330\274n\251\r\275\347<\347=\201-\350<\232\212\331\274\376\355\226;\326p\037=Z\226$\273\340\"^<\260\003N=\261\013\205=\366F\002>\n\266%\274\r\361\353:\265\r\204=\367\363\202\275>\364M=\302\301Z\274\3121\005>~\357\272\275s\251\221=\301\347\212\274\201*a=\236K*<\327I*>\300\352\023\276\242jG\274\007xc\275O\210\353<8\265\237\275[j\321\273\210}\260\275\336$\223<kt\024\275\"\214\233:\0178\200\275\233\257\366<\374\201{=\347\352B\275\245\330\000\275\360\352\245<hh]\275\243\325\250\275\320\375\220<\"\2015;E}\004=)\233\374\274\344\300\231\275[\365\366;\310.\'=\300\321h=\325\315\205\275\312\031d=Wj8\274\035\3113\274\263\247A>\245\014\302\274`\347\225=\344{\351=\201!?;-L\372<pJ\265;(\201\223=\365\374\206\275\t\233\241<\255\211\253;\207\224\274\273m\025n=\251\r\030\275\024\352\201\274\370@\303<1\032^\275\361\365\r\274^\026\315\275\350]\031\274\rL\306\2754\370\311;\333_C<\0130\301\274r1\022\276Jb.<\204C\341\273\357G\025\275W\347f\275m\353\240\273Mt\347\275\203\206Y<\302\3329\275\177\342\245\275)q\227\275i[\210\275\360\027\267\275\213\275\010=(\321\350\275\234\022\203= \025\260=\024\361y<\371\313^\275\322\320\367;}\267\\=\234d\243=\345~\364=\276\247\\\274\313U\002=\204\272\r\275\037\"\r=\234A{=\343\2405\275x\252\354\275\034\325\235\274_\005Q\274,\033\352\274f\314,\275\363\374\223\275`\005\211\274I\226;\275\372\375\250\274\263\364O=\025\017M\274\350r\327=\216\305\237\275\357I\217\273\362J\371\274\217\030\311=\037\224\230=\307]H\275\276o\373\275\206\356\254<Ra\337;IZ;\275\273\036r=J\201Z\274\t\033\377<as\010\274o,\205<a\342\320=\300\265\276\274{\374M\275\217\227\000\276-\365.\275_\330\330;Y\205{;\261\327\252=\'\215\000=\245\005\326\274\313\224\263\275\006\0325\275l\252\263\275ZsY\275\375@\265\275\266F=\275\342<\376=\221\272}\275C7\302\273\204\360\033=0\017\257\275Hb\244\275:\2248\275\205\001\014>D8/=\246u\202=(\203\233\275o>i;\037\003\210=\207\300\r>\342n\'<\000\251\2209*\004\272\273\2624\277\275<\271\317<\216d$>\365n\262\275e\236\271; ,B\274bS\212\274\211jH=C\371\274<\276\310s=\311\273\252\275\025\2129<\200W\227=A\225I<\325\317\017<\013>\333\274\377Y\356\275A\265F\274\236\277\255<\337\214u\275\027\303\'\274\n\271\223<{\206\300=\335\345p\274\361\361W=\373N\355\275\311\013\305\275I\036\221\272\355\261;\275G\372\002=^Ia\274\265\212z\275[<\355\275D\272\330\274\270\230\362\274\251<3\275\360|[=5\321K=\257T\213=\243A=\274\006\233\034\276\2766\023=\324F\033\275\'\235\243=\275\374\007=jW\240=\273(L\273\254\026\207\275\252\006\006=\241G\251=\211\033\201\274\263\004\211<\315\006\326;\344\204\026=t\222H\274\224\356\353=\356\306\365<\033\333C=\303\200\177=\277H\277<\n4\226=\223\003\270\275\276\020\271\274\223\014G=\006\262\252;\013&\375\274T,*=\274\233\234=\302\367\364<\273C\321\273Q/\217=\177M\223=\226g\315\274\370\232\250\273 \355\371\275\320\227q=\332\224\024\274Z\304\323=\350p\342\274\003\3253<Ghs=\336\322\241;\363\230\244\274\311\013\334\274\367\026\242\273\035\275@=\312\000\276\275\247\222\314<\227<\336;>\345x=D/\274\274\262\"\347\275O|\"\276o\327\"\275\314\362^=\311\014\350\274\3150\200\272\036\014\211=\356\215\177\275\034\200\211=\260\255\363=P\350\232<\256\307\t=\3075\001>\316\027\013\275\023M\r=t\263D=u{\351<\201\316>\274u\225 =G\205P=C_\321\275\377D\372\275Eb\262\274\260\310\006\275\227\2102\274\276\243\325\274h\341\345\275.\253$=\007\301\036>\315F\320\274\0338\301<I\317\376;\200\362\021=\367\317U\275\211\215U\275\"<x\274\200g\237\274)N\037\274+\036\344\273\253\035\227\275\244\237\211\275I\237Y=\341\035\332<&\236~\275\027B\377\273v\025s\274\025*\276<\025\345\200=\372\025^\275W\217\005<\000;\203\274&g\235\275=B\243;\327\264U=\240\026$\276.\216%=cw\362<5\036\250=TD\314=*]l\275\252\005\203\275\312\322o\275\035j\200=\007\366\t\275\014\007]=\315\014\217;c4\322\275\273\265|\275\034\325\230\275\353\324\272<\322?|\275\313\255z\275\224\227\343;\344\337\240\275\035\032\360=\261M\334\274\327\233\301\275\347\231\363;\003\257J=N%\240\274\000\260\006\276\311\246;=\000Hn\275>\302\237\275\273k[=w\250\355<\372\356\230\275\314\227\354\275\365L\360\275\210\260\322<\360\315\275\275}.V\275\"\247\r\275:\016\363=\0169,\275\010%\363<\014\202\220\275C\352%\275q\224p\274F<V:\240\334j\275\3651e\272\224pK=Xw\356<\335\257&<\252Q\301\275\274\264\325\274\'\211\306\275\327\221Y\275e\352\335\274\353\276;\275\204\301Q\2755hf\274u!\261\272W\3317;/\367\360:.m\300=\271\244A=b\202\201\275\255\362%\275\230\257\013\276Y\367\327\274\373<\367< \206\231<a\225\237=9\262\001\276\247n\343<\274o(=\246\224\r\276\274\005\263<ux\217=\376q\271=oY\203\274\315`\352<B\223\211=\0323-=\025a;\274s\301\352<\034`\275\273\242\312 <\364V\001\274\205Kh=\301\250G\274\322\227\202\275d\254I<\030\327q<\3336\355\275\354\362\205=9+\252=\223\243\254\275\177\214a=5#\364\2753v\246<z\305\020\274\3248T\275\255\344>\275%yZ\275\371A\375\273\014T\263;\205\330\366\275\275(\320\275\270\266\270<\370\017\r<j\213\031\275+\177N\275&\207\330\275iA\366=\366H\330=6!!=t_\201=\234\246\036\275\273\214r\275/b\026\275A\3544<\306\215\275\275\034\257s\274vh\362<\025\235k=(\303\216\275\260\330\326=\264x\336<\234\326\027=\302\205\\\275\345O\034=\206L\301<k\206l\275\347\270I<\016~\323\275P\231\375\275\264\351\245\275\020\212S\275\016:\004\275\034.\354<\365\315\236\275\216z(=\005\301d=^\310\312\274\332XZ=\361\346\035=\252\347\312<\002A.\275\022\220/\275\t\024\237<\000\247\">\003\205\223;\263\014\n=V %=\022j=<\247R\301\2747\3509=i\261\215\274\273\367\031>\007\305\350<y\360%\275\271\017\314\275u\305\263\274\357Ij=?X\206=8\272V<\224\036\262=\352\222\277<a\341\023=\0143O\273,\3655=\221E\217\275:\010K\274\233\'\332\275\376]\354<\213Rl\275\257\342,\275\265\316\340<z\006\264\275P\014\t=h\362\027= Oh\275;\345f=\357\032\252<Q\266\037\275m\216\244\273&N\356\274G\305S\275\030V\277<\207Wg=a$\237=\220\t\204\275\313!\300\275#Xi\275KD\266\274\"\331\374;95*<\214\307\376<ia\230=\000;-<\347/\301=\327\335S\274\3674\225=\205\200J\275!\035(>(\223\322=\366\3067\276\226\3052\273A<\307=\212\267\270\274\205\335{\275Z\026\353\275\253\275\211<%\215\376<\322\021?=3\241\031\275\251\366\221\275v\2357\275\2271\377\274\335\206T\274\035\233[\275A\363@\275U\247\271\275,\265}\275:-\267<\260\027\324\274\226\204\356;|j\224\275~\315*<(P\232=\375x\034=\357i\220<L\342\205\275?>\307=\347Z\267=\3541\276=>\271\326=\205\376\235\275 \376\343\273Oi\006\275\374N;;\313\332\244\275\017\n|=@\032\245;\300\360\327=\025\351g<\222\210A<\377\322\216\275\225c\360\274\177qD=l\276\267=qH \275\367\203\357<\311\323I=}\235\233\274\223\355\255=\330^\335\2757\202\344=\000\262E<\267\247J=a@8=\341\304J=c-\243=-\035*=\032P\371\275}\366>\274<\256x=\375A\305=;\232\246\274\307}+:\207v\241;\325L\254\275m9\230<\216o\352<}\342\003>\\\0256=\r\r\023<\3303\317<\216\355\316<\327\357K\275\312E\240\273\323Z[\274\317\306&=\010\363\231=\000)t=\250\346s\273\007B\027\275\307\264\n=\270\212\001=\261\336\346\272\345}\350=6*\317=\305~\341=kD\242\275\274\031X<\316\316\212\274\315\022\316=\032\262@\274@\000\373=\240\331\214\275r_\213\274\034\303\345\272\366\\\257=S\304\252\275>\210\t\276,\336Q\274j\212];\206\337\262;\267~\272\275\002\006\037=y2\247<\231\255\t<\227\204s<\222q\222\274\t\235\240\275\010\241\331\274U\227\354\275jx\301<[\270\331=\331!\016=Y\277\200<9\305\250\275\324\"\336=C\034\240\2747\001\264\275\241\010\010\275\311\036f\275\254\2157\275!\312\231=\305\n\217<\007^\322\275CS\\=N\205\006\275\020+\322\272\231\240\366\274\035\"\244\274h\332,\275\201\247X=T\005e=\034{\002<\260\371\242=\316*-=\004\252\310\272uKF<\261f5\274\t\264\214<eP\357\275\020\357\243\274\n\222\202\275FJm<DR$\276\271X\276;\304l6\275\370\335\r\276\215\346\333<\352\334@\275T#\275<\'\t\236=\355\251n=\2040\263=\270O\272\275\3174\252\274\000<\251=e\321\210=\260zi=3n\315\2742\266k=\022/\237=\3362\366\273\355\326\236<\267,\341;\274\236Q\275$Y\230\275\027\300\307\275!\244\243=\333}\324=\326\352\241=\353\300\333\274G_\3459\234b\205=E\330\214\275\"\362\257\274\306\320\251<\010\337\276\274\371@\211=\350\021?\274\327\033{\275G\354\251\275\373^\032>\363\225\002\274\232To\275\353I7\274KBK<?\224\304<\345\\\331\274YB\014\275\325\354\024\275\010=\245<E\353\306<m\272[=\022D\024\275\300\365\231=\357\215\005>\223Y\266\27567\022=\375\265\361=\200\353D=\245}\317<\365\374\037=\340\307\227:,\250\234\274O#\323\275l\036{=\307A\353\274\275D\356\272\005\3073<\330A\333\274.$\335\274be\002=z\202\222\274\377<$=\n2\010= \222\322=#1\213\275\203\337C;\260\337\351=\026a\244\275\034\333c\274\273\331 =Z\207\265<V\000a=\027/<=\203\006z=\354\016\247=v\270\320\2758n\006<F2\002>J\277\372\274\3758R\273B\314\006\275jh\375<\273\305!\276\204\357\'=\236\215\217\275<\261\360<GF\023\276\037F\330=\361\316\244\275\327\210\010\276\027\376\320\275\024\271\206=xyb\275\243sK=\r\347l\275;\363\367<\323\203\336<R$\233\275\332\257%\275\n\344\002\275u\372\007\276\370\022\345\275\327\341\344;un\237\275\006\345Z\274\302e\333\274w\257P\275\212wV\275\034\231\001\275\242+\317=\211\206\233\272\354\r\270<\262-\212\275\350\257\273\272UI\241=\277X\003\275\257H\033\275)p\332\272l\370\367\275\346\204\255\274s?Q\275\2128\337<\000c\234\272(\253\n\276L\330\255\275{\303\032\275r5.\274\313\272\334\275n$=\275\023\304\241\274\270\320\241=\270!\023=\230\314\224\274\374J\327<\263\r>\275&\232\324\274\366=\357\275\311\n\005>\033\233#\275IKj=\310\225\022\275m}j;\370\344~\275I\246\007\275v\240\372=\302\rY:\320\013\272=z\210(\275\216\272\220\275)\337\274<\345W\223\275\001\351\202=\272\376\256;\210\250\374\274\274?R\2750\022\306=s\265\350\275\022\270\"\274\262j\207\273r\227\014\274\036m\326\275b\373\374\274\223v\321\274y\342\244\274\205\304\341\275\002G\207<\234\262+=/\305\'\275d\361\026\274\265\214F\275ov\213\274\007\022\226\275\340\001\355<\211c\250\275\347\267\225\274\327_ =\375\037\313\274\225\213^=\245\223#=0\032\032\276g\324\227=kN\353\274\220\303\307\275\240^\211\274o\216\230=N\273\347\273\245\230;=Ce\014=\030 w=9\0213\275\256B@=\021O\306\275\2023>\275\021,\353\274Xa\254=\177{\000<Q\343k\275\371\3511=W\010\202=\034&\304:\330\365\254=(\273\321\274\006A\'\275\255\315\020\275\274?\220=l\325\267\275\345\334f\275\334\031x=\030\2435\274\037\326\204\274\177.4>#X8=\223\206E=\236\210\202<7\025\244\275=\\\230\273\'\310,=2\226\243\275\342mK<\337Q)\274\311\023D\273\367\347\200\274\313\207\250\275\247\034\007=E\3769\275\000ge\275\327\377\330\274\317`\025=\211N\034<\022S\310=\013\223\241=\027\021\316\274s>\035=e\260k\275\253\276\017\273~\371\360\273\r\342\007<3\220\245<\3279\334\274,\351\345<]\355\021\275\330\323\304=\312\377f\275\216`r\274\034l(=\375\3119=L[_=\037G^\274\265\203\305;\274X<\275d\005z\275T\322\014\275)g\370\275\026\356\201=\226cA<dw\321\275\374M\003>1Z<;\331ue\275\356\213g=\206]\020\276\371\330\214\2742\323\007\276M+M\275\353\213\214\275\250\320^=\205\324\031\275\231\207\031=\350\003\340\274\037\360\310=n\326\261\274\212#\264=@\241\254=\245C\221\275\234\213>=\200Vp\273T\334\317<\\?\337<eO\023\275Q\266-<$\367\332\275;\262\2709\205\226\016=qB\226=\214\275\235\273\312/\007<\211\254\240=\267\363\244=\007#$\275\353\330\214=\251_\033\275\207\rq=*\326\035=i\n\302<\027R\213<\252Y\235\275\376{-=e\375>=\255cm=\246\374\350\274\257#\255=K\203\244\275\317\013\201=\261-\220\274\336\030d\274\361\264\021\275&\3370=4u:\275\351\366\014\275\211$W\275k\010\036\276\364\351\200\273\304\367\004\273\303\333\036=\227\\\n\275\203K\037=\371\321\005\274\364\314\257\273\270\335\244=\274\336\207\275}\272\006\274\321\241c\274\3463E\275\224I\225=\351\202\203=\224\\\246\275@\267\263=\317\262\206<[\316\213=P\303h=V\251!\272\003\301\232=\0304><A\210f=!\206\231\275m\'\017\275E\231\223=\013\274\211\275\271=O=\375\2636\275\374\003\220=vx\216=\255tx;\247\325\311=\004\351\200\275\240\036\033\275\002>\353=\247W\262:\365\004n=\346\333\254\275(.\024\275_\211\026<\027\231\022>\274\325^\275\375\242\022<\"Q\266\274:\267\243\274\0345\035=\276\312H\274g\322&>\222\364B\276\313\261\256<\354\026\267<\362f\007=\203\205\313\274\220M\202\275m \"<\256\033\223=\027\373J=\004\312\'\275\302O\263\275HE\224\275\334R\227<\346\332|=\371\251\222=\276B\003\276\204\254b<E\312\214=c\214L=n\202\243\274\'\265X\273zo9\275\201\320\271\275\007\236\032\276\341\270\361<\327\222C=\366\356\236\275V\'\335<l;\"<\n\274\201\274\231\336\301\275\272t\230=;\355,\274\271h(=\374\263\275\2757>\310\275H=P=j\315\366\274\261\366\217=\023\216\202<}\205\326<$x\021\275\223\346\301\274gX9=p\212\275\273\375\2369\274\234\327\010>\222\\\021=2\302\261=a\216\266<o\245,=\037\013$=\3339\025=\026\005\264;\321\024\001=\033\204 \275\274\310\346\274\377f2\274&\342u\274\215V\356\274\334\ny<<\332\014=\255x\326\274\241\206\335<\231GD=:<\360<\251\026\242\274Xj\016>\341\226(\275\367T.<\367<\004\275\002\223\262=\006\324\021\275\301\365\325:\334\265\235=\341\234\222=\234\315\363\274\223 /\275\374\211\342\275#E8\275\362z\312\275\013q\"=\234\253\023<(\263\332=\202\r\260\275\033\201\212<\r\005\021\275\010\276u\275\203Cj\274\007mb\275\000o\n=\241\356F=v\302\314\275\346$B:\364t \275o\037\013=?r\013\275q\327\373=0\240\244\273\0340f\275\335W0\275j\001K<\360~\035\275\324\266\336=\"\263\222\275\267\236C\275\'\021\\=\342<\246=\013\001\331\275C#!<\025\210\330<\252\277\027>\367\312\262<\234\235\313=:<\233=\020\242n<\263D1=v^\327;C\315+\275\276\277?\274\310\366\347\275U\347|\275wn\260\275\361)\227\274\325\004\022=lb\037\275 \275\345=\202&\325<5:\315\275\305\354\260\275T\301\243;\226B\207=\226\3530\275\302\305\001>Ij\322\275\271\300\232<\322rq\275\365\230\263=\2301\017<\3058\362<J\317\020\275S\244\024\275fD\357\274)*\201=m\240\201=p\204\345;:L\310\275\010\t\271\275?b\324<j\365\020=V\246\253\274\312\007\024<}\203\014\275\261IH=\177\347\274\273\240\311\271\274\230\321\207=\350e\262=I\237c\275\343\3778\274\212\206\006=\003W\217\275\227.+\275{\256N\274W\200\377<\236\037q\275\253\204\226\274\212\357\007\276\372\364\212<\034\265\211<\334\252U=:cw=\265ty<\177\200\257=I\254\366<1\205\242=\3646e<\344\205\270\274\0353p=\271\037@=\243.\355\274\3377\323=jh\207=\000\222\007>\345\321\324\275\233\372&>V|R\275 &[=\302\010\352<\302\'\247\275\225\274\024\2748D\003\275\353h[\275t\263\222\274\226\257\272\274bB\334\274\214H\253\275P\252\251=\320j\362< ]p=\271\372\314\274f\357\365;\216\271\226=k\220\355=\002`\343=\3308_=\371N\376\275\232\217\372\275.\211\001\276\377\202\234\275\247\313\232\274\254\2306<&=\004\275z1\312\2746Mi\275\350\005\270\275\243\213\354;vE\t\274^\210\273\274\016\034\253\273z\320L=\014\216\370\270N0*=\246\251\310;\031\305A\275Q\272\374\274\202<\037\275\223A\375\275\337\372I<B\336\241\275sG\035\275\263\323d\275\275\206/=\334\312\212\275t\n\312\275?\2167=T\273\027\276\352\226\243=\215\220a\274,\322\245;\223X\007\275\r\267Z\273\375\240z\2755CI=P{{=M\233!\272wr\004\274\355XV\274Z\026\303\274z\210\032=y\367\025\275G\037C=\216\213\306\275/\216\020>ga\035\275f\227C=\236\325h=\202M\204=\237;\260\275SI\314\274\314\302\024<\361\003\033\276\312l\227=i\260\315\275\303\n\260\275=R\362\274$\037\033=\3020\207=\005\365\254=\331]\316\275\371>\260\275\343\030O\275\376\2554\275\036\013U=2\201\r\275o?\2319\000\024\257\275\270\022\336\275\362\037T\275\305\246\212\275\302\327^=\327\021\370\275}\263\367<\217\300\275<.j]\274\324dj<\301\n%\274]j\276:H\356]\275y\nu\275\001\214w=\251_\234<\035\'\314\273)\346%\275\"5\005\275Uz\374\274\221{o\275\331\036a\275k\342$;\267~\204\275\000\322\276;8\243\021>\366<\350=\262\356T\275\254\r\021=\007\373\215=\3469\375\274-\303\200=l\322\217<\360\376\356\275\262\212\265\273\'/\035\275\247\332\253<\240\r\240<\300\265\321=)\023^=\326`\372\2753\367\200\274\257\325\226;x\372\357<K\025\265=\255\261\032\275+7E=rV\014<u7\256<[:\370=V\303\273<\245\217\266=)\334\354\275,@\177\275Ur\n\276\224h\255=@FP\275{%\326<\270\310$\275tln=\321P\267\274i\242Y=<\264\337;GBN<\311\364\257\275\023|$<d_0\275\224\236\267=&\322\014<B\246\336<c\362\243=-?R\275\363EW=\243/\331\273\315x\000\274b\025I=\242\311\\<\334C\257\272\303\327%=\224\375\221<zQ\"=g{\331=\233\017\353=~XM=\324\346\t\274)\024(\273v\354\t=\334\030C<(j\324\274Et@=\240\3663=\275\300Y\276\204\203\261\275\025>!=8Ej\275R\214\370<\027\217p<%\345\210=B\334\221=\276\331{=\032\257\214\275\265`\035;R~P\275\221\r!=\0148\343\271\037\201\225=>6\326<\3726\241=*\211\322=V\367\342<\"\355M\275\020T\227=\310\334!=0\367\222\274\310w\221<\320\304O<\236\322\245\275\326\212D=\375\230\370<<\0109=lE\343\274\277\r\351<\261\014T=\240*1\275\247\271\350=\r\274\301\273\374|\277\273\221\0371>\010\215z=\032\226\224<Q\177\177\275[\226\316=\365g8=\032ok\275q?Z\274\005\016\346\274@\267$=\364da\275<\255\316\275\226\362\226\275\025\005\331<\216\2205=\316\226\253\275\305\247\255=\206lf\273\334\241\326<C\257\212\275\017\2602=\032\375\020=\345\234<=5\232\321\275_Hb=\272\350\020=Z\024k=\335C\205=\224(\312\275+\3446=*6\234\273\255|W=\303\016\216\275\2545\016<\032\232\005=\022\241\373\275VI\020<5G\007\275\212\255\341<\311rk=\\\331\241\274k\001\335\274\235\331\210<\355\2411=aO\314\275\366AH<\330\235q\275\367\222\251\274\341\005\010=\320\255\326\273M\235\255\274\377\262\302=\025\016>=\013\316\006\275as\377<\327\357U=tv\177=\023\363F<\034C\233\275\326\354m=\364j\251\275\277\326\031>-$\242\2749d\367\274\222\201l=H\0137=\312bl\275<\316M\275\335\260\314<RI\010\275\270:\014>\254\236L\275WB =^\225%\275\037\327\206\275\344\265\211\274t\336\252\275+!\032\273\211\236\274\275\302j\264\275e\343\200\275\224\214\317<\235\245\177\275\030\310\200=,\331\023=\025f_=\032FZ\273\233\225u=g\022p<\225\317s\275\241y\263=\363\020E<\361\334g=\236W?\275Q\331\306\2755Z\025\275\221\030%\275\r\2719=c\027g=6\246R=[\222\202\275I\2719<\034\264w=\235\026\"\274_\200\277\274\364@\340<\361g6\275\252\344\215<\326p\227=\221\236T=\264\315\020\276\223\225?\275\347\270\036\275YBS\275\031D\317\275\001\231r\275\347D\356;\333\354\004\276\215S\006\273\362\355\244\275.\334\316\274\003\010\311;\243G7\274O\324\003\275\207\033\373\274LtQ\274\306\304\270<\364\000\250\275\205\322\234\275\354\024X<>\2729=\032|\227\275\344\322J\275*\375\274\275\353(\022>x\025\241=\314_\315<\257Y\375=\267\327\003\276\315\3238=k4}=_\263%\275\020\323\237=q\330`\275\312\326\260\275\236\323\363\274,\240\310<\203\005\206=\204\306\235\275F\020\315\274\323\205\203<\236\315@=\014+U=\311\222\302=j\307\216\274\203\333\271<\340bL=\303\321a\272\3051\010=\273\326t\274\350\300\253;5g/<\317|*\275&\370\'\275~\316R\272\033\2315=\351>\025>k\272=<\200\247V\275\036\230\377<\267\037Q=\354\023O\276\346\201\010=\tSJ;\355\274\327;\323\244\021\275\374\361\203=\335L\274\274\346\233u=\017\022\232=\355\353#\276\t2\200\273\376\035[\2751;\003\276\030u\274\275I\271\306<$c&=\025\177f\275_\325c\274\n\320\353<\220\207\245=k\245Y\273\275\373\001>\240\207\033\274\344\003\036\275w\355+=\240J\203=\033\3372=8\340\010=\316\232\025\275\016\000X\275\017\376\020\275\321\277\351\274\250\343p<\214\324\003\275%F\000\275\3374\366\274\347s\r\274\001\026\306\275n\363z\275\246K\314\275\367\264\276=V\200\305\274?=\260\275\022\253\214=\265\247>;{\325Q<\"d\245<\332\354\376=\306N3\2754\212\037\2751\253\032\273x{\326:\245\354\024\276\246L|\274]^Y\275\317M0\274R\204\004\275\306P\224\275x\257\241\274\257P\026\274o\325\274=m)\220\275\177w\037<X\356\026\276\006P3\275\261\275\251\274nAd\275\000\313\315<5z\010\276\250?b=\245\'\240\273[\232\222=\231\265)<\330~\343\2724m\n>\335\255\224\275\313\200h\275\256\277{;\357lY=\310\227\305\274\374\334\030\275\256\252K\274\312X8=G\247\246=Vt\270\273t\240\016=\026<\342\275$\316]=0Y\352=\224\312\202=\214,+=\007\241\246=\235\010\341;\007\345\272<\371\231\304\275\352N~<\227$0=\031\005(\273\354e\364\274\234A \275\336\271\221\273\341\370\306=\021\200\214\275\2229\215\275/\025v=\207E\230\274\201\215\177\275S\333\005=\"\262\355<\023_\266\274\341F\n\275\026\257w\273\366\020\337\273\375C\240;\232\264\227=\235\233t=I\223@\275[v\304=X\037K>\215\202\332\275\342\001\203\275\235\333G\275\205\355\331<\010iW=\221R\255<b\223\223=\3534\246=\361\331:=Z\n =a\217q\274\215\0232\275F#\202=c\033d\275\234R>=\244\323O=*z\315\274\360B\204=l\311L=\360w\302\274\0311\217=\334}\371<\352\222\347\275\373\215\222<\036b\003=\027\244\315\275\242\2708<2e\327\274\201V\316\274p\023R\275\"\025I=\364&U=m\243\207\275(\364I\275\341\243\345\275\000Cv\275l\234\006=#\\\024\275\331\336(\274\271\201g=y}*\274w:\300\275\030\223\353=\021\251\236\275\tk\025\275c\242}=\"\355\335\274\332z\'\275\336\327\013=\230\027\266=\253\251~<E\240\251=\304\034\355\274_\256-\2756{n\275kK\206=\275\376H\273^\321y=\271\312\321\275\273qG\274+g}=\237\021\334\275\251\2244\275\2703I\274)`h=\337\022\005\275\003\253\002>\317PK\275A&\255=\023\306\036\275\336\256\216=H\323\317\274]\nT\275\024\337\013\275\363\353\006>\303\277\001\274N\352\204;\335\245\247\274\222;l\274\320\323J\275\363*\233<\036,A\275\204\273\037=\363\243n\274\026\'\223\273\373\325/=\016&\002\274\253\362~\275H\017-\275\326\354\003\275K\312\374=\'\307\213=\202{\311\275`\271*;1d\027\276B\231S=\254\371\261=A\310\343\274C\253c\273|c\314=\205{\255<\236\275q\275\307H>\275?\241M\275Z\\\t\275\314\3637=\256e\276=\037\240\361<gMT;\214Xe\275AD1=\240\243p<\354\332L:\364~\217<\203zd\275\334\277\213<t\264\010=\032\367\025>\341\343\377\273\352\234\004<\024\360\005>\006rm\275\026\333\177=\030\260\361\274\022*\300\275\271\333E<0V\267=\243\247\035\276\346c\244\275X$\274=[\314\030\273\304\217\253\274\365\344\336<\3627\242\275\337(\201\274\374&\301=\033;\023\275\316\021\200=\375\234\017=\021(\310={e\357<\3577e=lH\256;\027\036\323<9Q\200\274\340\373\326=\375\025}<vU\210=\350d\014=\245\037\202\275S0\243=\333N\235<\030\244\021\275\307\342\273\275\251\250`<r_\356<d\322S=\032\371\255\275\353\301\255\2757\210k\275[tX=\377\226\254<\366\316d\275/\340#\273\360M\270=\233\201\271=7-\230<\377*,\275f\322\213=\240\361\241=:$\177\274\251\025V\275\201r\">\242\201\375<\3426\r\275o\023\270\273s\024\367=\252\006\031\274cw\205\274?\375S\275\304-\262\272\036\221I=\003\311\006>\271j(=\"=\334<5@\255;4\372\003\275\322\224M\275P\265\r\276\362\301\004\276\212G5>\240`\357=\031o\327\274&9\201<\326\204\257<y\231\374\274k*\247<\302\254T=c\231\210\275\200\373`\275\024\324\001\275\323\227\274<{\261\277\275\024o\033\275R=p\275\313C\253=\227Z\243\275V<\004=N\004\017<y\201z=)\276\305\274\324\306\352<\262?\027\275\352\2408=\251\272\340<e\306\265\274m\007&=\313\1777=\370U\t=&V&=\270G.=\223\3755=\330\022\006\275\334\350\312<\310\250\005=\261\321\244\275\316\311b=\226\201\230\275t\010\017\275\205`r;OU\037=i\202;\275f\201\005\275\372(`<Y\035h\274\003\244-=Kr\210=\312[h=\344%\017\275\326\232\362;p\205)\275\026\222\212=Su\217:V\tz=\244\\\365\275E8\326=m?~\273;\033{\275\217*@\272\245\217\252=\031]Y\275\2100\311=\306\356G=\n\336\327\273J\276\210\275s_\302<m\351\262=k\256\233\275\030\256@\276\240&\333=\177\355\353\274\366\\:>\230N\326=\243\030\216\275\235\347\025\275\354\271\034=\303\324a=\203E2\275\026\200\206\275\346\224\302<\"\277:=6zg\275\236\326\326<\320U\203\275i\210\241<4\377 \275\002\333\320\274\006\243\334\275U\345\003\275yXQ=\333\301>\275\021-\253\2751Ru\2754?\020\274\352\273\324\273\217\232\212\274\230\036\322\275\365\022\361<\177\255\t=15\352<q\334j\275\325L\330\272\344}\224=FwQ\275\312\350\027=\036/\343\274\013\226s=\257gy\274j\214\373<?\r\376<\007\0103=(\024k\273\3076\324\274\007#\347=L\212\241<=@$>\363\203\007\275# \313\274\206vX\274\344\342\024\275}\331\371\275\010\230\'\272d#\200<\354\346}\275q,\244\275\035\265\372<\233\345?\275\211z\223\274\376b\305=\253\221t;\036X\217;h\255H=?\t\242=\\\276\214\274\025c\207\275\226\232\243\2743\032V\275\374\363B<\014\311\253=U\227\244=\025\355\211=s*\177=\177\t\261\275\0137\254=e\000\352\2741K\235\275(5\334<C!\275\275<\263\021\275tH7\273N\n\223\275\\\3767\275\225\t\261\2757\273H<\303\221\260\272\000\274N\275\2765\242=MX\334<\311\006:<-\340\225=~2\264=\251\322+\274\336\322s\274\007|\320\273\233\316\222\275S\222\367\274\271\215H=\000\337\233\275\271x\230<X\031\261=JA\034=\2755\302\275)\360\332<W\010*\274\034\010\261\274Z\276h\275Z\322W\275\240^\025\275\227P\206\275\323\303H=1hE=\326\022\035\275+\332\207\275\306\350\237\275\354\3554<r\302\021\274\360\223\273=7\363.=\267\336\210\275\365k\250\274z\036\006\275\027\263\264=\365\3602<\220\317\033=oF\303=7W\266=\025\\\222\275\356\251\355\274\362\311F\275\377&\212=4fd\275\243\\w=8W\205=\314\354\302=\007\355i=\203t\241=\331\264\314=\203\373\021\274\242\203\250\275\214\220\221;\2322p=\245/\227\274\310\326\261\273\033\331,\2751EI\275\214\236\245\275g\nS:\205U\033\276<\214\376\274G\217\255;\206\216\213\275H\214\213=`*g\275u\r\210\275#H@;l\231\336=\022\341\353\275\000T\207\273\205\020y=\253\300\226=u\032\274=\013\261\233=\233%4\275\ny\232\275\021\n.\275xVx\275q\2366=\025\213\266\275\361.\232\273\267\3417\275c\203\312\274\225g+=\024{\266\275\301B\213\275\374/t:sY#\275\317J\264<E\312\n=G\273l\274/\020|;l\375\362\274\330\246|\275\244\022\277;\300\327\253<\255\236\305=\205\325\325\275\211y\\\275\314\304\231=u\262\034\275S\027\037=\367\007P\275E\377\233\275\003@%\272\356\215\321\272\326\241>=\034\215\307\275+\377^>{\347\370=\254\231\360=lu\374<\350\377[\275._\254\275\353\022\306\275\036\207\212\275\231?k=\ts\303\274!\n\222\275\242U\254\275\257Y\260\274\365$P<\332\317\377\275\221\024\023\275M\337\023=\270\332\347\274\357\300M=\250\343\010=\323aJ\275\20590\276\343\201\307;y\332\371\274N\232\247\274\230}\311\275/\030\255=\376\205V\275m\001\016\275\003\003<\275\355\244\r=\260D-=\266\036I=<\034[=\307\347B\2759\003\254\275\372\257<\275\325\003\257\275\234\350\306\274e\244\336=\\\323\005\2753\327\227<\004\352H\274V\316\334\274\240(\251=\254\036\004={j\356:\'\322\205\275\311K\307=\364\355\213\275pN\210\274%\305\334<\274$\322\274l\t\303\275\334J\205\274\035\366n\273\322\334\2107\006r\307=\227\177\310\275\210\032\250<V$\001=\241K\033<-\375\326\275\022=\247<Y\313\227\274\376\314\206\275\301\"\036\275%\344\271\274\310\017\204\275\215\210Q<\323q\355<\000\373\242\274\232]\203\274\353\274\034\276n\253(\276/70;\257r\362;\002\333@;\027\204i=\305\022\300<[\306\243\273\030\304\241\274o\340\265<\\t3=\037O\267=_\0260=\205\023\247=\373\223*;\340I\227\275\371u\211\274\021\252\036\275\265\276\236\275k\343\226=\031\t\022:2\355\313\275PQ2=|\304}<\377\3613\275\264\250\036\274A\t3\276L\375\350=\272\270\226\274GK\260=\314\266|=(J\373=\021\033\235=\355\316\260\275b.\n\275\352A\232\275\375\337J\275\273\275\212=;/)=\377\036\324\274l\024\003=\035\004E<\200^v<\203\033>=0\221\201<\003\"U=\357\220\272\274\340)\035\275\221\177\372\275\317\006\231=N\372\326=\222\032\205=*\035\277\274m\356\004<\324\311B=ewk=\2607\355<\220\3742=\241\327\350\275\232\372\241<W\207(=\323\\\246\274\2255\360\275t\031\301;o\374\225=Uj\250\272\202\323W<G\302\026\275D-\300\275\210>\342\275d\311\020\275\270\026\222\275\342\250\227<qI\305=r\3032<\3312\364:\247\232\242\275\325\340\032=\037\236\343=\271\322\375<\243\273{=\217\205\363\274!\374_\275\005\326\201\275D\022\004\275\005\360\332;\035\'8\275\301\037\266<\025Z4\275\263\263g\275\251\260b=\212q\303\275\001\367\215\275\005\327\'=\023(\002\275m\027%<\261}\014=\027I\210\275\227\023\306\274\023 X=y@\242<\'\240\215=o H\275o\350\211\273}T\275<\247\016\271\273\250ta\274\000K:=\255\303\242:7\343\365=\325\233_=\337E\213\275\212\034\351=\363\365+\276\365H}\274\314GP=q&\301<\033\330G=v|7\275)x\023=p\331\227\274\277\227\275\275V\242\255=>\304\337\275\020\337&\275\301\000b=\271p\214\275~\252\230\275\010\331\326\274\3119\323<\305\007o=\267\272@=z\276\272:\341\036\206\275\177\257\037>\026\342\003>\3456c\274\325\273\333;\336\327\"=\327F\016=\240\2168>\221\302A<\023\207\355;^\205{;eU\354\274\342\356f<\234\0045\275\234\226\367<\211J\344=5\025\223\275`\225\372\275h-Y=\304\244\022\275\247(\242\275\037\346\343\274\340\215\211\274\030\370w\274\204\345x=\374\256v\274;S\306\275\317\364!=\317\177\321=\377\361\022\276\013\026g\275rX\312\275;\342\376<\375\215\317=\360\271\025=\027D\256\270\223\335\314<\322\243\200=\016\246\200\274~:\217<\223\322\347\275{\365\223\275]\374\251\274\251G\265\273\231\010\263<R\376\242\272\214e\335<\365\306\234<\177\177=\275\222{k\274lR.=K\267\353\275\204\252\214\274\245]`=\212HE=\342.G:\013$\253=\304\304-\275\304\261\230\274\271\234\035=\371yY\275\247\035\362\274`|\345\275QX\017:\370\"@=\261\2677<\014I\260<\275\255\362\275\234b\265=>O\237\273\002\035\372\275z\260\255\27469\n>0E\367\274`\325\246\275\377\027\202\274\351\205\336\274\257\221B<\3777\337\273w~\207=\220f\315<\242\243\227\274\030\027\024\275\310\177O=\271\254]\272\246sC\274\352\222\205=\033\340\330\2732IW\275\016\006\032\275\3114\336:o\321\037=\325\207\272\275\010\217\223\275I\367C=\001\240\333\275\201\374\267=\242\212B\275\002M\\=\223\253\014=\034\233H\275\345-\217<[(\322\272/\222\236\273\263BI=\027\007\333\274\357\025\361\2741\324_=\017\335\202=\005\234\222\275(\264\376<\245\020\335\273\320;\334<\310\n\331\275\341\3417=#*I\275\211}\033\275m\202\003\275\016\340\210=\255\317\322=\025\234\025=\301I\342<\022pV<#=\277=u\217\010>\036\302\303<h\333/\274`-D<\244Ky\275o\003\306\2747E\241<Q[=<\325\265q;\026\3243\275]|\177\274$;\364\272\020\357G\275\002>\304=\tNg\274t0e\275L\216A<x\223I>B\352\021<V{?=\315\325\304\274x/\332\272\3034\004\275\375[\223\275\312o\266=\314\324\206=\254\235\260=\364\r\265\275\340\221\317=\3708\033\2764\266\212<S\201\217;c2\350<\341t-<\034^\203\274\377?C\275r5\303<\221g$\275[\014\027\274\305\325\322\275+\327\237\274\013B\332=\006Y\207\274\270Y\214\275r\205\226=\251w7=\302\272\204=\331[\323\275\360\023%\276\306\375J\271i\360\334<p\361\363=7\236\371<\230\321\205\274}C\321=\274\264\254=yJ\230=\334\244\207\275|Q\354\274N\0357\273\263\246\035\275\310\231 \275H\214P;\2657\037=\363z\376\274\373c[=\236\033\245\275z9\221\273*\241\266\275\226\003\020=!\324\240=\033\317\211=\211\005\316=\003\203;=\355\367O\275\364a\200\275\241.\r=\262\260J\274\024\356\026=\2042\351=Q\372\020=;\263\r\276\036\262/=\227\262\321:G\004+\275\367ll=\236l\231\275x\270\271\275\372\304\306<^\316d=\030\216\241=,\260\302\274\226Y\021>\317m\230<\314\013\315=FO\240;\353\001e=\t\251\311\274\352\276\256\274\365\"\265\275\021\337\377:\352F$=4\n\264\274]\367\256\273_\310\353:G\316\247=\036\200\n=9I\341<w\034\221\275\020\323N\275\017\360-\275V\021\"\274eI\205\274\010!\375\275o\302\246\2754\261I=\035d\216<\204\356~\275\367[\334\275\210\316\267\274m\2269;\267\266\230=/>\034\276\361\213\"\275\003\235\311\275\003O\213\275j9\202=\231\017J=\210`\250\275x*\252\275\207\306<;\230\335%=\211p\317=\275\252m\275\256\227\000\276\204\237\235\275\270\360\214\274\005-2=\241~g=Ae\364\273\336N\311<\226OJ\275\236s\246\275\250\006\301<\202\002\361;>\372%=Eoa<\211)\352<rRp\275\263\234\032\275s\021Q=\035[\335<\370O\211=\354R\232=\030>r=\3102\024\276\233@\341=\206\023x\2759\343\210\275\037\273\362<\016\377d\275LG\242\275d\217\234\275\300S\301=q\325\261\275<\310~\275t,\215\275\000kT=o\331\024=\004\036\313\274\353\320\002\276)\207\004\274\022\000\247\274\251G\251=\376\233L\274\304?\223=\324E\030\276>\243@<5\226\0308\007h\016=<1\270\273l\017\000=\247\211\241=\276\317#<[Rs\274\333\336\007=\023\032\235:a\033\220;\205\344p;\021\257\325<\0062\262\274\020\274\341\2741\275G<\226^\211=\264a\263<\201\273\007\275\212A\332=\026\246\026<\301<\224\274\363\2508\275\002\313\225<\303\375\265\275\345X~=\251\226\317<\263\262\r\275k\345\030\2754\037\306=\301\000\326</E\246<\007\202\276<\374\025?=)\236C\275\002\023\310<:\014\351=\300\314\213\275-\260q\274P\026\"\274N>\252\275t\255->\277\032\342=\245J\376<\236\000\315\274\310\021\333<@\000\330\275j}\024\274|\022\234=~\272\206=\304\025\026=\367\252$<J\274\210=\255\365==\327p\343\274\371\\U<~\344\205\275sPm\275J&\003=U\203[<M\022\200\275\330n\322\275\200He\273W\366\305\275TM\311\275\236\245\273=\002\342M\271KL\200\275\245\235\026>\224\363\021;LL7\275\331h\323<\376y\360=\350\311\323<Uvk\275\364\205\000;\216/\235\275\"\227\336\272\327\r\013==)`=\264\263\007\275\367\256.<f\0209\275\231\220\221=\030\205\002>\346\345\343<}\220\221=\022\220\025\276d\034\230\274\207\251\374<\245\233\366\275\"~\221=\217\375%=\222\261\223=\007\026\221<rO\207\275#\027\326\271\t\031N=\021x\035=\310\214\027\275[\375U:\251\006+\276\317\022I\272\276\214\307<\244\207\030\275\300\207\035\276bKj\275\307\324V\275\375\001\257=\037\222\215=\342\231\241<\224?O=\306t\271;\247\271\302\275\266X\003<\263P\250\2755V\337\275\177@\226\274-\302\023\276\001\357\372<_\014\030\275\n\252\334\274v\254q\273\276\204<\275\370\252\246\275\204\200\213\275\266\260\357\274i\220\003=\rV\270=\224\271w\275\362\334\270<W:3\276\344\035\253\275T\201\240<{\320p=\324\306\263\275\246\n1<\217\254\244<\007\316\253\274\022\034\002\275\032g]=\220\237\001\274X\275v\275\253{{\274\214D\220=\245\010\262=\344\260\265\275c\310\231\275\360\003\001>\006\337\347=\322+\345;\2732\243=\256\r\371<\267\030\264\274?\334z<E\275]=\374v\031>\377\021\216=+\232\217=\326\223\031\275\266\034g=\031UD<\254fj\274kCN<\037\276\356\274\3419\354\274F\037\362=7\0257==\274\257<\233\224\225\275Q?\220\274\314\270\266\274\211\007\305;MX\214;O\334\034\275\237I0\275\034\350\035\275\317r\304\274\342\254<\275\340\240%\275\325\223F\275}R <\305\337\004=\250,\356\275P\201\201=\367p\023\2751a\373;1\201\363\274\264\007>=\t2\250\274\254\205\225\272\024\245Q=4\203O\274vMt<?\031~=\334\331}\275#\032\217\2744\210o\275\235\253y;\316^\006\275\246\201\330<f\362\202\275r\233H\274PL\000\275\376\032\203\274M\036\223=\230\027]<\231\033j=.e\245=\326\006\002\274H?\016=\372\335\253\2746oR=\001I\221\275\033\017\234\275\001\007{\275\262\245\225=L\262/\276\357P\010\275:w\264\274A\314\217=\303b\304=4x\240\275\233\222\342<\335\316_\275\221% ;P%\204\274\000\020\263<\003\006\215<\361]\236\274\242&\331=X\224~\275M\211C;k\255\201\274\205f|\275\361m)=KH\242\274[SS<\307\366W=(L\267\275\267\375\332\275-\013\242\275v\\\374;\002\212\223\275EE+\274pn\274=\273\237\200=\3407?=qmM\275\006\261\200;\n\022#=\034\344=\275\315I)>=Q\264<k\247\363\275F\352\213=Q\030h<\016\t\201\275-s\260=-\304\006;z\313w;\252`\315\274\365\n\332<\r\353\235<\2123\234:\334s\003\274\2114\017=\351\033\227\275r@=\275\235\264\261\275\335\367\334=\337\313\245\275\212h\\={\005U<\221\276\222=Qi\340\274\331\323\030\274#\233\023\275\342t\244=\207\320O<#\347#\275\221\234\202=\021}c\274\243\021.\275\216:\233;\240\000\222=8\267\301<\216\000\225=\367(\003=\325\200\210:\305\030\235\275dM+\275o\323\222=-\374\370<\t:J\275P \'=a\343w\274\325T%:[3\247\275\275y\271\274qD\342;4}\322\274\273\005\003<\370\t\267\275k\331\000\276\324\337\337<\014\271\017\274Xs\017\274\2472\031>m\200y\274\026\360\261\275},\314;\304\216]\274\313\351{\275\006\272\020\274p\242\246\274\255\266\270;o\340\027;\271\250W=\323\200\363<\002\240\313<hy \275\360w\006<\2572\216\275\226\200\023=\253+\310;y\254\251\2755\007\354<\202\335\222\274\303\330\246=u\211\273=m\227\006>\325\316\204=\223?\r=&\243\361;\215Rh<\365tm\275\333A\343<\335\212\230\275)\315\023=\304`(\275\324gZ<V\203\025<\246\360\317=\353\002\377\275w\365\356<NH\232<\023\r\"\275\031\265\356=\'\230\305;u\365\323\275j\320c\275\265\341T\274j\r\257=\344\335\211=\337O\000=\327\033\002\2757\360\366\275\ny\251<j\317\346\275{\362\004=\313\202\204<pp\355\275\346\304\305\274\017Q\262;\260\tg=\027f\020\275\267\377\241\27404\035\275aL\241\275\330$3=919\275\240\334\266\274\253\034\'\275\201\244#=\321\325L=\201R\204=\275!\274=\301\227\025:\256\320\202\274\307\250\262=HI\206\275\037\376A\275M\205q=\336\300\273\275\000\010\200\273\376\216\332\274\223U`=\032A\333=D7\203\275-\205\332\274{d\327;\266\325\'>\212Z\265=y\273\210<`WM\274Y\201\024\275\363\231\017\276_\222m\275\201\203\265;\373\317\333\274\000\263\234\274\013\203\n\275\231\022\013\274;\250\310\275aTY\274)p\003\275\220\315\267\275\300d]\274\242*o\275sG\260\274<b\364\275z\242\361<\2369\241\273\247\257W<Z\016\264\2727\007\245=\001\226\204=\346\342I\275\223\203M\274`L\210=\315\251\030=\343h\230=f\371\\<\210#\246=\017?\313=\227\031x\275\244\223\231=\342\277\373\274\323vD=\"\336\246\271\222\312\316\275\236\250\341=?]4=l\236\226\275V\022\316\275\343\303@;\346;\207\275\t\370\203<X\264\230\275!)\007\276\205\021\022=[\r\300\274\237\274\"\275\226\027\207=1\355s\275\023\252\002=\035\325;<\276\366\316=Q\235\204\274\267\211\221=\361\260\220\275C\351\313\272\250\007\303=\274M\027>W\230\002\275\203l`\275\350g\r\275\35565\275\265\354\023\276K\004\365\2750\220\031\275<jb\275n2\324<eh\005\275p\262\030\275\345\017\020\276G6\211=\307|:\276\035\200\266\274\251@a\274\260s\346\274\253\021n=\234\271\306\274\326\005\204=/Y&=\347\240!=\323\357\225\274\"\000\004=\300\225&\275\322m\'=\247\r\212<\2529\030>\370\033\257=\\O <\203o\267=\331\330\\=K\277\026>\030_\t\273\311\034\'=H\370f= <\306<\357\222\367:\340\367\216\275f\'\250<K\355\034\274\251\\\214;\245T\212<VS\215=\267\353L\275\276f\'\274G\325\354:\350\303\252=q\232\335=\025\375\013>\r\314\205\273\352\214<=]\224\217\275B\257_\275\010\271\324=Xw,\275\320\325\035\275N\'+\274\220\344\034<\004iS\275\202+\311\275\377\374\233\275m\030\245\275^#\024=\333\202\324\275\347\030\224\274\361+q=2\276\r\275\004\246\020\274CF\215\273\212\356\347=\262&\257<v\256\262<\247,h\275\202\037\235=\203+\2259s\231\204\275\362\211f\275[\337w\274L\'0=K\370\017\276\202\217\033>!\217b\273U\037\205=\247\353\340\274769\275\213,