node {
  name: "keras_learning_phase/input"
  op: "Const"
  attr {
    key: "dtype"
    value {
      type: DT_BOOL
    }
  }
  attr {
    key: "value"
    value {
      tensor {
        dtype: DT_BOOL
        tensor_shape {
        }
        bool_val: false
      }
    }
  }
}
node {
  name: "keras_learning_phase"
  op: "PlaceholderWithDefault"
  input: "keras_learning_phase/input"
  attr {
    key: "dtype"
    value {
      type: DT_BOOL
    }
  }
  attr {
    key: "shape"
    value {
      shape {
      }
    }
  }
}
node {
  name: "LSTM_1_input"
  op: "Placeholder"
  attr {
    key: "dtype"
    value {
      type: DT_FLOAT
    }
  }
  attr {
    key: "shape"
    value {
      shape {
        dim {
          size: -1
        }
        dim {
          size: 100
        }
        dim {
          size: 4
        }
      }
    }
  }
}
node {
  name: "LSTM_1/kernel/initial_value"
  op: "Const"
  attr {
    key: "dtype"
    value {
      type: DT_FLOAT
    }
  }
  attr {
    key: "value"
    value {
      tensor {
        dtype: DT_FLOAT
        tensor_shape {
          dim {
            size: 4
          }
          dim {
            size: 256
          }
        }
        tensor_content: "\375o\275=\267\315K=\035\265\210<\337\310\372\274c\210\213\273%|\342\275K\224h\275\234X\251=\215\353\224\275y\3577\275\300\250\247<\016`\231\275\002Uc\275\320Q0\274\013\244F<\246\324\330\275\241\037\372\275q\374\254\274\263o\220\274\357\240\033\270s\312\260\275\314\347\234\274\032x[\275m\313\212=\237x\253=\210\205\230=f\264t\275\355\036X\274q\214\211=H{\020>\302\313\024>\235\213\335=\001Z,=*\227D=&\206\330\275z`^=wvD\275U\266\355<k\310\021\275\313y\034=\215\030\206;Uj\320\273\\w\236\275-\236\243=\030\333\332\275^a6\275\034\364\215;n\253\215\2736\244\241\275\356\377\236<G\025\301\275\304\002 \274\365\031\263\274,\264\206\275\313\312&<!\037\005\274\032\344\217:\301X\214\2744\373F=\272\035\006\274I\356\021\275S\234\014=@\343\263\274\014q\271\275\034\010Y=\034\356.\274\031Z\211\275\232\341\272<l\017\203=.\344\213\273\245`\211=>\212\201=\t\033W\275&\356^\275\246\356\035>\2774k\275O\215\343\275\205\303\014\275\337&}\275\237\227\224=LA\336\275S\034\265\275\021\337A\274\315F\256\274\210w\277<\243\346\347<\335e\023\275\332`7=*\313\177=_c\235\2741\234\231\275Y\347\366\275\331-x=\332\310\253=\001\204\207=\n\020\016\2767\037K\275e\373s\274W\317\210\275\307\362&\275hH\215\275Z\207\225=\353\363T\274\r\246\221=\232,F<\322\352\305<l\236\262\266\330X\231=\0258g\275#O\236\274\326\225\374<:\342z=\302i\355<g\023\265<j\000)\276\240e\022\275*\002\215\274\340\322\210=\264`\212:\200%\005=\001D\262<1\312\017\276\214>\023\276\246\214\270=ik\037=\'\007\025>\"J%\272\341\251\356<\366\353\302:\214\372\013=\205\343\024\274\314\341\274\275\251\245\020\273\023m%\275N\014\241=9\224V\275\363K\227\274\251}a\274\255\350\007\275\252\337\310;\277\374\216\275\035e>\275q\276\326\274\362\355T\275\354\n\324\274\242\357\205\274\023\266\233=?\363\013=1n\213\274\266\256\000=[H\010=pZ\207<8\325\033\275\300)}<\031\302\215\275\335\177\034<\221\365\320\2748K\334\274\364\265\232=\357\337\226<P\021\226<!\n\023=\2120 \274\245\347*\274V9\r\275O\356m\275\374 \206\275\214\300\301<\230\251|;\266\344L=\035f]\273X9N\275\200\003^=e\311`=k\003D\275H\354C\275\271\025\t\276\330\227\034\275rj\266\275\225\343W=?\231\213=O6:\276f\013\214\2757\320\360;j.\340\275\014\330\\\275N/P\274?!\006=\363]\005=]\312\365<\240`P;w/&=\376z\210=z0e=@=\027<\334Q\253\275+\006;\273E\266\352\274\353X\242;\223\220\001\276j\177\240\275\257J\333=9{\245\275\347\002c\273\341\271\250\274\"\360\321\274\320\177b\275\237\323l=\nq\345=\245r5\275\321n\203\275\005Ax=\262\266-\275\347G3\274\002\202U\275\301\035\000\276\323\377j=\334\331\006\275\0005\211\275\247s9\275\377\301#<\027$\205<\212c\305:\336\001\376</\244F\275h\2571\274\026z\020>\374\351C\274N\206\341=G\tv=\333\000\237;\330\335\305=\005\nd\275\374WW=\036\033\177\275\t\201\260=.,4\275\231&o\274\242\235O\275\311\331\361:\030x\017=\254\346\014\275\216\003V\275\002J\214=h\271\002\274\250\325\231\275T\2530\275B\024\272<\r\215\030\274\367\363\257\275\340\241\242=\367\325\027\274\377\313\036>}\224b\274N\377\030>p\275\232\274\326\'f\275\226VV=\317BI\273\013c\257=@3\244\275\344\234\352\274\225\253A=\262\2109<\232x\004\275\332\r\217\275\272^/\2757R\246=\365\2569=~u\312\274CI\007\274\336J\314<v;\365<y\257&<ww:=$F\216:\002\240I\275\276\372\031\276\205\026\301=\340\351\322\274\362\333\211=\276\276C\276\317S_=%\330/\274\267\273\302=\261I\203=>\313\326\274\ri\016>\341\021\353\273-@b<\362\343\232\274\241*\251\275\375\276v\275\214C\311=\017\261\262<\001\002n=H\326Y\275\3536\271=Mj\250<pf\005<\305\213\347=C\354p\275\246F,\2733*\025\276F\265\366;S\304\257\274\353\242\347\273\253\223\242\274\265\322\"\275k9F=+\022\314=\365\223\311<\346\244+\276\367\024i<K\001^=\352\023\374\275\246\323[\275\235\201)\275j\377\375;\335\213c<\245\326\256\273\t\266[\275nk\356\274^\330\204=bXt<895\274\2262I=o}\005=9\024]\275\243\000|<\302\204(\274<\356\037=\270\030\224:\205\326\204<\026\361\025>]\205\t>\301\211\003\275\010\2677\275\235\205\326\2755\311\'>\022:U=O]O;\360\002\026\276\210\241\271=\327i.\275D\032\357<L7\010\274\303\224\203=\272\302I\275\242\240\231:\352B\360=PlP;\303\202\264<\031\025@\273\213/\037=\247\024`=\336\220\225\275\356\302,\276\'\2136=\007\210J\275\360j\306;\005\316\033>\201\0271=_\\\007\275\271\211\213\275\240m\267\274)\231\310< \340\027\273\267\017\222=\360\224+=\375\003p\275\210\030|\275\0277Y\275\322\250\245\274\037\006Y<\343\246\220<fTq=\265\223\212=\232\271,=\006\255\t\275\336\244\371=\2234\322\272\242\254\261\275\214\315+\275$\207\374<+\363\217=\346o\r=\244c\261\273\004\311\325\274\273\364\031<\265\336[\273\316E%\275[R\216:\230\271g\275\214\327\016<\2729\014=\336\340\370\274](\266=\366\006O=\"7P\275\\\374\001\274\035\340\342\273qE\227\274>\017\302< \365\245;]\303\006=NF\211\275\247\252\246\274\370\317\000;\032z\271=\202\267Z=\334\235\t\275*\323\372\271M\242\032\275)\273\007<g\277\307=\215\325O\275BX\321\275\205\375\227\275\321\310i\275?#\205\275\256\334_\275J\275l=De\227\275\375U\214;j\302\'\276\306\200C;\2037G\275\357\222<=\035\212\245\274\3111\336\274N\237\255=\223CJ=\251\330\323\274\246\356\335=\243L\n=\371\257y\275\010K\037\275\274\257O=\305\223\036\276\305\237J\274\272\300\366\274C\312U;\034\375\252=\332\017\016:so\030\274Ip6=\021\212K\274\\\335A<\247\241/\275\224\035\236\274\3655\261\274W\375\346\275X\323\016\276\236.\317\274\350\257\260=\337 \356\273|\321\374<\344\301\234\275&\036\311:\020u_=\224\3376\275\302j@\274)\037\343=\357w\206\275/\335\030=\336\215a\275 #O=d\307\311\273L\017\247\273ml\315\274u5\257\274\035D\n<Q=\216\275\311\262#>\262s\027>\227\2622=\314n\023=Gr\277\272\246B\214\275\034g\340\274\024\0301=\031% =i\312\336\275\277%\362<\006\303\"<\316\215\341\274\202\250w\274\0333\301<-\250/\275\306\350\003=\302\242\033<\230Pr=\310{j=\314%\210<!Q\203\274r\021\211=6\306J=~\237\224\274\2074\017>\210\344\346\274F}\002<\214\\\244\275\266\032K\275\267\201\363\274#\366F<\317\262\231\274\304\202\377\274XS\227\274\362f\370=\217\201\220=\330:@=\262\020x\275\r-[\275\264\217\024=\tZ@<0\227\034=9\243\014;\324\345Z<\220\251g\275\364\312m\275&ZK\275\271\200*\275Q\353k\275)\2715\275\365\261B=\216\0027\275\3142!\275^{\275=\344\346\243\274\211k\t;%N\323=I\252\277=\377\231\r>\203\357\250=\r2\256\273\327{\005<\315j_<E\263\314\274\343\362\017=\250J\267\275\366D\204=\021/];\205\354\240=\233\345\327;\344\345\001\276c{i=\r5i=\2146\031=|x\214<\263\357\242=\375\315\227=\230\227\265\275s%T=\203y<>~\211\370\274\250AN=d\364?\275\022K5\275\217\310\034\275\004\2443=\211\254G\274R\t>\273-\310\224\275\207&\213=h\325d=\336\332\341\275\226\240\246=\031r\n=\320\002\262<HE\243\275H\370\251\271\235<Q=*\213\302\2757W\244\274\007:\205\275y\320 >\'-C=\365\317[=\310t\017<\206P\311\274\375\305\242;\333\204\034;\357\215\353=0\006\372\273\370\004\371\275\026^\036=\034G@\274C\321>=\003L\231\275\264$\352\274\010\303\177=iZ\004=v\227\r=\350i\253\275A\0003={\333>\275P\244$\275O=\013\275\367\215\313<\320\333\347<U\210{=/\373\001\276`\272\274=\357v\314\274\0221\347<\025\266\305\2733s\344=aI5=\020\240\243\275\007\260\375;\225\253\314<,1U=DS\306\274c\002\326<\315hR\274\303\210\312;\245\234=\275;I\'\275|&C\273\003\204\251<\242\207\266\275\355\014\"\275\272\302\244;\263\014=\275\225\335[=P\262\274<\246\323\014\275^\343\304;\356\306\257;\373\342\010\275\nf\240\273\\\271\263=.x\243\275\013*\004=1\241\320=\343;L=\246Y(=A\270\225=\007\231\"<\023\000\270\272c8\314\274\335\035<\275I\244\337;i\311 =\301\031\226\275Z\303\003\276\236\325\035\275`P\n>\\\322(\275k\030\221=X\2648\275\t\262\373;ULJ=\022\010_=\367\342\214\274\201\346p\274O>\362\274\311\212L<\272~\235\274\364\213\n=C.L=o\002\221\275\024C\337<\340EN=\006\326\311\274Q\365\007=}t)\275\"\254\313=b\356\007=\303\336\223\275\252\226\275\275t\342\202=\373\326\212=\226\032\024\275\237/`=\234d\302\273\036\245~\274\247I\206;B\360\025>E\313u<l\3601<\372ln<\022\372\021=0\026Y=A\242\366<K\363\314\275.\302\275\275\350\274\231<\304$\036=\360}C<\346\2447=\000\356\306\275\005\330\252\274\332A\007\276\307\343\t\275\022\253\003\273\201t\035=\311\017p\275\005\273\022>\235+=\2747.\002=\271\256S=\200\303c=\022\235\203\275\357\325B\275\027[\267=\334\247\230\275R\220f\275l\350#=\333\303!>\213\373y=\205X7\276&\264\252\274\206/]\275\"\034\274=qE.=\232\246\303;\320\267P\273d\373\035\275x[!>:\212\227<M\227\033\276\366v\321=\260\364\245=F\t\216=\230W\026;\352\342 =\361)n=\t3\320<\020\322h\275\264\306\220\275Bk\016=\013\372\323\273\273h\002=\367\313\024>\333H\262\275\2160\302\274\226\324Q\275*\006\326=\316m\256;\372>K\275\00384=$\357B=.\271\320=\244N\375\271\263\337\\=\\U\r>b\274$<\006\263\275=A\3475\275\367+\241\275@\002\376<U\236\201<nwe=\266\026\323<\224\337#\275A\225\032\275q\233\233\273\327h\314\274\263\005\211=\007|s\275t\301t\275\332\370\034\275\331_\014\275FY\206=\361;\331\274\005[\204=\304\254\013\275$\003\262<_\224(<\342\347\352<}p\242<\037\373\017\275M\344\\\275Y\223\033=\301\032*=\311\206\021<\036J\373\275@\256S\274W\003\031\275Q\330\\=\364+\003\275a=:=\355A\030\275Y\200\205\273\3731]=\344\005\341\273\245\273C\275lYA;\004b==\\\211v\275h\325\376\274A\361-\273-\257\244=/V\334\273\221\203\362;;#L=;\220\266=\261i\000<\031%\324=r\313\035\275N\237\342=\023zU\275M\355\221=\316s\267;\022\346\232;5e#\273\210\243\264=`\300\t\276\277\271\035\275\326\345e:\367P\334=\001\315\027\275\324\364\252=|\214d\275\342\315\233\274W\361e\275\243\200\020\274!\230\317=\202\335\344\275\255\211\367\274\034KE\275\341\347\347=\356%\231=\266\330\025>\242\201\352;\274F\310=\274\263Y<o\000\032\275\216\217*\275`_3<3\235\223=^\210\251<\231,\021\2765\010\325\274\225\207C=E\206\033\275\332^\317;\361n\321\275\004\333B<\352\035&=\352\270^<\235\256\n\275\275\331\250\275\212`\252<N\202\004;G\261\206=\034\327\254=\275/d\275\306wJ\275\242.Z<,\240\250<\363?\232\275\351Z\217=L\233\376<(\007\241\274z\034\245=\256\345\023\276\321\272<\276\243J\032\275\320~I\275L\215\343:\262\230\027\275\367\006#=\215W\272\273\225\367\205\274/\226!\275dR\022\274\314\032G=\215N\350\274\307\353\035\274P\324\301=\324\343i\275\t\300\247<\221}\312\275P\354q=9\264\255=\320P^\274<\274a=\313j\242<\006DX\275 \324x\274T\177\211=\003\'\000\276qM\274\275\203\256\310\274\225\013\245=\314\351\333<j/\275=.\246\023>dB\303\273j\252\303;\310\272\211=v\021\251\274]\315\225\275\363\231\330=`\030\350<\372\314\313=M\306):\r\243\363\275\217\260\2339Q)*\274\026\014u<\"\r><\301u\336<<)e\275U\242\332<\205{,\275\267\275U>u\365R=\326\266\274=^\005\321<\371f\332<\212\000\361\273e\356\276\274\025\370\027\274\264x\353=]\213\306\274\226\023\326\275\022\013\031=tEp<\300\032\'=\263@\220=\224\213/<JXD\275\327\237)>\260\225*\275n&\266\274W\230\024>\230@Q=\314\307\321<\232\020`=<Y\257=f}\262=\362*\330\274\031\336&\275z\212\0179\232\332\236\274>#\013=B>[;\352\357\031\275\335\002`=\252\220@\275\331V]\275m\363t=\257\330_\275\370A\026=\361%\337:Y\361\013=\264\304`\275\227\344\216<\306*\331\274\350y\024=j\212\222=\333\307\010\275b\005\340\275\365Q\240=\000\260\260:\372j\336\274@\030\305\274q\247\324=|\312n=\311\306m\273G-\227\275W\301\201\274\210\300\010>\352&\243=\314j\372<\310\016i\273G\227%\275\022\337\221=@\037\230=\362\334N\275\300\034\310<\272E\353\274\241\331\245<Oz\343\274<\235\372\273\256\361B\275e\237\027<N}\030\275V\n\324<!\243t\2750\2161=\326\225\277=`\353\267\274\266\375\237\275\347-\211=\2234U\275\304\037Q=\030\363\'\275r$4=\035A\271\275\354\272\206=\r\220\210\275\200\356_=\241\366\225\273\360\333\205;\346a7\275\315n\304\275b\226\005\275\rt,\273\334;\211=W\275|\275t\214\340\273&\216\343=\316\007\233\275\350\316\204\275\324\247 \276\327w#\275Fj <\345\365\201\273\311\t\300=\371\304}<M\025\313\272\3074\023\276\233(m=n\342\3049\005b\242\275\017\334\263\275\210\2268=\001\'\n=\377{\354<"
      }
    }
  }
}
node {
  name: "LSTM_1/kernel"
  op: "VariableV2"
  attr {
    key: "container"
    value {
      s: ""
    }
  }
  attr {
    key: "dtype"
    value {
      type: DT_FLOAT
    }
  }
  attr {
    key: "shape"
    value {
      shape {
        dim {
          size: 4
        }
        dim {
          size: 256
        }
      }
    }
  }
  attr {
    key: "shared_name"
    value {
      s: ""
    }
  }
}
node {
  name: "LSTM_1/kernel/Assign"
  op: "Assign"
  input: "LSTM_1/kernel"
  input: "LSTM_1/kernel/initial_value"
  attr {
    key: "T"
    value {
      type: DT_FLOAT
    }
  }
  attr {
    key: "_class"
    value {
      list {
        s: "loc:@LSTM_1/kernel"
      }
    }
  }
  attr {
    key: "use_locking"
    value {
      b: true
    }
  }
  attr {
    key: "validate_shape"
    value {
      b: true
    }
  }
}
node {
  name: "LSTM_1/kernel/read"
  op: "Identity"
  input: "LSTM_1/kernel"
  attr {
    key: "T"
    value {
      type: DT_FLOAT
    }
  }
  attr {
    key: "_class"
    value {
      list {
        s: "loc:@LSTM_1/kernel"
      }
    }
  }
}
node {
  name: "LSTM_1/weight_regularizer/Square"
  op: "Square"
  input: "LSTM_1/kernel/read"
  attr {
    key: "T"
    value {
      type: DT_FLOAT
    }
  }
}
node {
  name: "LSTM_1/weight_regularizer/mul/x"
  op: "Const"
  attr {
    key: "dtype"
    value {
      type: DT_FLOAT
    }
  }
  attr {
    key: "value"
    value {
      tensor {
        dtype: DT_FLOAT
        tensor_shape {
        }
        float_val: 9.999999974752427e-07
      }
    }
  }
}
node {
  name: "LSTM_1/weight_regularizer/mul"
  op: "Mul"
  input: "LSTM_1/weight_regularizer/mul/x"
  input: "LSTM_1/weight_regularizer/Square"
  attr {
    key: "T"
    value {
      type: DT_FLOAT
    }
  }
}
node {
  name: "LSTM_1/weight_regularizer/Const"
  op: "Const"
  attr {
    key: "dtype"
    value {
      type: DT_INT32
    }
  }
  attr {
    key: "value"
    value {
      tensor {
        dtype: DT_INT32
        tensor_shape {
          dim {
            size: 2
          }
        }
        tensor_content: "\000\000\000\000\001\000\000\000"
      }
    }
  }
}
node {
  name: "LSTM_1/weight_regularizer/Sum"
  op: "Sum"
  input: "LSTM_1/weight_regularizer/mul"
  input: "LSTM_1/weight_regularizer/Const"
  attr {
    key: "T"
    value {
      type: DT_FLOAT
    }
  }
  attr {
    key: "Tidx"
    value {
      type: DT_INT32
    }
  }
  attr {
    key: "keep_dims"
    value {
      b: false
    }
  }
}
node {
  name: "LSTM_1/weight_regularizer/add/x"
  op: "Const"
  attr {
    key: "dtype"
    value {
      type: DT_FLOAT
    }
  }
  attr {
    key: "value"
    value {
      tensor {
        dtype: DT_FLOAT
        tensor_shape {
        }
        float_val: 0.0
      }
    }
  }
}
node {
  name: "LSTM_1/weight_regularizer/add"
  op: "Add"
  input: "LSTM_1/weight_regularizer/add/x"
  input: "LSTM_1/weight_regularizer/Sum"
  attr {
    key: "T"
    value {
      type: DT_FLOAT
    }
  }
}
node {
  name: "LSTM_1/recurrent_kernel/initial_value"
  op: "Const"
  attr {
    key: "dtype"
    value {
      type: DT_FLOAT
    }
  }
  attr {
    key: "value"
    value {
      tensor {
        dtype: DT_FLOAT
        tensor_shape {
          dim {
            size: 64
          }
          dim {
            size: 256
          }
        }
        tensor_content: "\t^E\275\332\3325\274b6\261\2750.s\275\334\\\005<\177hx=\302\201 <kuK\275L\201k\275\230\356\247=1V\236=\016:t\275\354g\271\274\3702\204=!f;\275\322\013\224=\353\345\207=\206\221\307\274\333S\253<#WW:\322\022\233<\333 \366<\205\023\226\274\273\220\371=4\370\302=yZ\211\275.F%\273/\n\204\274tS+\275\343@\252<0#\035<\212\233F\275,\375\336=\344\342\265=k\020(\274\212\357\222=cJ\242</Ut\274[\265M=Y\251\251<f\205\354;\343\225\014<\263\210\301\275Sr\312;\322Nj<\263.\266\275\351P\277=1\267)\276\3114Z\275\315e\310=\202N\226\275(\023\003=A\353\024\2750\320/\2758\255\233=[\315\376<X\216\\=\256\303\247\275\n6\021\276\\\316\t\275\311-\256\274H\006\221\275\252Q\206<\016X[=.\\\227<\"\312\315\275\262\315\254=\017i\372\275\236\037k\275\334\261==/\333Z\275\036Km=rFg\275J\035\243<\332K\206\275ht\360\275\250\221N=?\326\235\275BP5\275\373$\277<J\031j=\346\032\301\2748\3545<\013+\202=\034\001\223=u\210r\275\tH\262=Q\355\3318\033\371\340\274\352h\236=r\360\000\275*2=\275h\016\263=\242\035\264=\360\212\303<I\321\017=d\2239\274\212{=\273]\213\265\275\213\371\010\273=\3228\275\"%\352<<\361\212\275\310\255\244\275\273\242\352<\331\0200\275.m\021\273\236PV;T\302\245\275\311 \226=\374\261\016\274\177o\036=\335\272B\275x\230\250\275}\335\025\2762\t\347\275\'8u<\347;9\274\007\263\230=$\202x;\021\324\260\275n\377\235\274\216<S\275\024\010S\275[\322\201<\217\220\036<\r\214\226\275\221\276\000\274c`\201<D\026\363\275{\371\322\275\255\021X\275#\336\017=\030\344\327\2748\030\304=<\017\312=\204\357\377<\357\361\004\274V\372\331<\270\264\215=&s\332\275\327\366\261<J\202\261\275\002+\007<4B\344;\034S\004\275\244\203\212=\317g\316;\266\016\"\274 *\212\275p\266\005<\rq\031=\362A\260<\0360\310\274\031\001\257\274%\360\367\275\337\261\304=\310\217x\275\251\223\\\274\273\036\200=\262E\222=\221\025\253\274\016\340\013\276\210n\204=\032o\322\275}\334\331\275H\273\373\274P\256\233\274\036\2466<b\233o\275\376\371\203<h4?>\245|O\274\022CP\275\3663\277<\326F\262;\233\005/=\2106\'\275\370R\354=t\006\342\273\377M\214=%<\032=\217\334:\275\235\215H\273\233\'\316=\350\211\365<\265\t\267\275\373\225`=;r\241=1\027\203<\344\336\261\274\026#\003=7\265\356\274\031\3579<-V\017>\263\331\034\275\3067\252=\350\345!\272[/,>\261\347\210=\\\202\220:\342\245\030<\337\351{=\347\325\013\274\320D^=\r\2524\275?1\212\273N\265\243\275\376\020A<yiP=)\302(\273\353\362^>g\213H=\216\000\233\275\256\205j=IF\201\2758\030\t=\323t\213\275\270\225O\2737f\321\274\320YF\275\377.\027\275\004\023\274<+p\270\274W\270\355\275\272\027G=\305\366\014\275\371gW\275?3\005>\362d\321<\346Pj\2756;F=\304\2119\275\2666\227\272;\035\341:5\203\226<\375\321\333=eK\321=0\364\260\274\024C\303=\330\034C\275\305\342\225\275\306\346\304\274\311\277\022\275\312\371Y\273>\371\362<\307v\206\275R\206\003=\237.\024\275\030\326@;\325\2312:]\304&\275g\2014\275\000\365\037\275\233qb\275\226\253\037<M\022\366=\351Z\335=g\037\303\275E\234\017\2753\324\200<\325\254\376<-\251\232\275\020(\207\275\304yE=\025\264\030\275\302E\312\274\321\241\010=\032U\250=\217Q\035\275\207\354\250\275a\344@\275\374v\372\275\2476Q=\t\034\346<\325\356\027\273\026\222\343<I\031\217<\013\372L=\307b\215\275\341\263\273\275\214\224\014\276\251\343\224\272\010a{\274\222\367\274\2743\2163\272U$1\275\327r\366;\223^\235\275\016\307Z<\344\304\213\275\360\315\343\275-\013\272\274\367\033P=\016\301\256=cS\"\273=V\004\275\365Ng=E\364\277\274\377I\005\276g\211\330<,\344\352\274\344+?<\313\034\244\275\\R\213:\270\253\232\274\215\342a\275\300\324\270\275\235^>\275\302.}=\017A\210\275\235\255,\275\236\037{\2755\266\246=M\306f\2757)\254\275\373\211\264\2752\016-\275\r0\256<\332\232\352\275r\203\274\274\276\343%\274\335\021O=\300bx\274\244\002\315=\271Z\373;e?\216\274R\020\266=\375\264u\274\231\351\321=#\214\335\273:a\277=\342\310\200\275O\374I<l\277\030\275\257x\213<\357\026\234\275\332\253\371\274\245\223\274\271\373\243\202\275\363\212\0308\253B\n>\202ch\274\315\264X<\255\026\343\274\316\202\227\275w>\037\273O\343\272\275N\312\251=\254v\206=\253\035~\274[\226\000>\255\242\303=i\r\247\275,\336\220=\373\014\340=\260\302\254\275\351\307?=\0247\322=\333+\356<\2452\354\275\314#\205\275\251\\\360\274\214f\314\274\023\221!=\376\207\005=J\340\037\274 C\305\274/\345\212=\273n\036>h\350\276\275\232\263\312\275`e\016>LIS=<7*\275T\355E;UH\202\2753\300\226<\003A\346\274}\221$=\037\007\222\275\2071o\275\313Rg\275\316\202\205\275\003\033\303=\306~b\275\352\321\302;\356\0244=3?\0058\301\237\353=\262\301\002=\'u7\274\023\215G\274A\332\205\275\361\3769\275\037DQ\274\206w\031<L\225\303;8/t\275\023\200\000>wW\020=\307D\035=%\023\214\275Y\333\316<\316(z<h\373\206\275\326~k<!\016z\274\222f\036=*\243\217<\327\2124=\274\247D;\356\370:\275\007.T;wT[\274\220e7\275\305M\235\275\371\242\232=[\003\246\274\254s\003\276-\261G<\346\016\356=\365UC=\215w\230\274\030\360\267=P\257\017\275W\372\232\275\203\265v\275\201c7>r%\265\275#\370a=\324\2070\275b\3760\274Av\247\275W\303\332\274\372-\003\275\314\260\312=\307\374\337\274\004\304\272;\027\t\330\274\245c\234=\374\223\371<\270\236\336<([.\274\361=\372=\361\3562=`\207\006=\321dB\274;:;\275Bb\213=`\235\001\275\2344\037\274\217`d\275\004\256l<\013\264\024=\376\302\222=\273ls=@ \342\275U\363\271<v\334\244\274\224\233\224\274\355e\024>\212\024\213\275\004.E<\322k\364=Q\366\004=\337\276\316\274\304\210\n=\376Cl\275\032\222\363\274b\366\270=\000\264\355<\211\027\203=\nxz;A6\220\275\250\206\322\275l\005\2379\372OQ=\330$\240=\223M\033;\253\372\320\2751ne=\314\370\227\275\007\216\226\273\276\t_<8K\352\273\225\367R<\353*k;\024\271\371<\000\013N;\232\364\304\273\355\341\245\275w\322\202\275\010t\205<\347\376\372\274192=\302\356I\273&\265\252\272\264\331\370\275\220|\337=\"\214r;y\226\303\275(\332\321\275\001\263.=\320N\217\275\004\260\340\275Q\021\235\274!\272\313\274\343\"I\275d\336$\275.\234\255<\344\362)\275\372ZG\275\021d\260=V\016\254\275\225\370X=w.\320\275\367\3138<\034\301\212\274\254\350R<7\362 \275#\032\352\275yB!\275s\013\034\275\023\323\242=\335y\377<\000\204\033=\027\376r\273\356\206\210=#B\243\275s\244\205\275Pp->#\324!\275\200\276\235\275\024\367\202;\021M\001=\\\001\t\276\232\213\202=M\271R=\206U\036<O\335\316\274\327t\036=M\346,=\n\345\007\276T\023\244=\tR\000=,\030\357\273l\022U=\345x\365\274jL<\275b\312\243\2757\364\204<\220Ua=\217\345\312=\n\217:\272\303j}\274\267#S=\377+\023>\004u\255<\3164_\275\211\177\231;\360\236\324\275^s\026\275\246c\314\274\241\226\034\275fO?=\330\204\004=\254\244c\275Em\013=R\342\240\275\234\t\014>\352\032u\275\217\363\347\274\272_o\275PX\230<\201\206\025=\000A\372\275\000\210\t\275\037\302\201=\205}\210\275\314\352\200=v\235\201\275\327\201=\274\274\374\216\274\002\355&>\032\220(=\312\330\007\275\336\240\204\275\020\263n\275dkA\275\321\032\217\274tZ\246\275i\352\206=\342\375O<4\031h=\220\336\214<\257Lo=H\311\035<\265 \255<k\223\342<\177j\204=\033\230\222<\003`\204=\360\033\225\275%\210)\276\3507i=\246\177\360=\013\337\260=\253\2465\274+\262o\275G\':=\021\307\037=\275\371W=J\324\322=\264\335T\274\265q\301<nD8=k\202\362=\\\242\260\274l\355\021=0\257\242<\302\024\022\274\003Y\005=G^ \274qu\257\2746\027\321\274\313\235r=\n\262\030<\0364\022<\354\211\204<E\236\321\275d^\036\274\322I3\275\363\213r;3\242S=\350\036(=\013B\030=\332_\217:\345Ex\275\376\343\246<\342\252\363\275\261Q\366\275\312\224\333\274\324m\021\271vP\302=\210c\264;\356\306\r\275\337\320\204;\357\204\332\275\022\022\030=\375\255\361<FKG=\26426\275\025\344\271=\241\226\364\274\373v\036=\202L|=#@4\275W\377\231=\367\207\036>f\260\227\275e\326\202=\333R\266\275-\3670=\364\264\360;\371\235\335\275a{\201\275\004Y\321<Pq>\275\365:w=\335h\001\275|\331\265\273(ob;su\340<\327\023\227\275&\216\312\275\241\221\031<K3F=M\252\270\274z;\313\275\004\225\344=\316\t\'\275\213\231\304\273>\376\301=\0164\257\275\247I]\274U\266E=uF\006\275\025\nq=\035\003\325=\372\007E=Eo\037\275\25033=9\001\367\275\302\333s\275\251q\262=\273\327\254:\177\350\003>c\020\024>/\343\267\274\315F\321\275\033\222]<\033p\014<!\215P\275<@\302=<mT\2753N\026\275\364nI=6\273\022=\236`\221=1G\031\275A\251\250=\275\335|\275\316\231\321\274\006\330\227<O\360\252\275\315\231\337=\326@\331:\327\213\310<\210\014\303\275\240\233\237\275\372$\335<\217Q\204<\374\362h\274\273\232\252\275\304x\345<n~\242==\272\003<p\322k\275\236=v\275l\310\317<\227;a\275\r\372\267;4\030>>s\366\302\275\216\230;\274\342;B=\364\025I\274\357\335\026=\350\331\211\274\207\276\213<\325cY<5`L=f\201b\275t3\377\274\014\342{\273(1\366<\335\276\235\275\332:\227\274\3140\n=ar\370\275;8\270\275\213y\352\273c\223 =\307\261z\272\300\177@=I\321\230<\327\263\306\274\373\264\035\275\031\253\n\274\223bY\274\305\001\211\275\233\004\372<\206,\210\274\013FP=\305\0347\2744-]<p\372\t=g\257[\274\334\373\010=\023\266\307<L\234(\275Ky\230=d\325?=#\2621=\242N\216\274\223\030\021>{{T\274\301\223\231\274&s\014=\310S\216=\242\343\007>\014\354Y=\007o\340\275\3016\010:\362\252\203\275\257\256\2269FQ\003=6\207\330\275\374\212\353;\226),\274\364e\032\275\277\022\310=\223\3341<\235\2068=\224\225\257=\237\223u\275Gn\253\273\246<\300\275\370\233*=\020\271\256=il\030\275\025\020\355<\201f\237\275\005\341\223=Q\327\021=r3\325\274\246\201\225=\357;\333<v\000\344=N\260\325<\242\007\236<\032\213\256<\343\335\232\274`6\313\275\253\235\364<+\2210=fV\242\275\337\326\025=\315zF\275=\201i\275ZY\004\276I\232\025\275\005pA\275\342)\210\275\306\235!\275\t\n\211=\347\036\344=\217\373U=\226\001\343<\217Q\353\275\377\244\225=r\232V=\376^I<\030\024\267\275\332v\272\273\rB\346<\227\002\354\273}d1=w\354\261=e\324`\275!v\263\275\340P\226=\342\321\357;\275\304\216:\377\212\340=\354\243\213=1@\337<\021T7=\034\211T\275*\320h=\037\201\203\275\375\240\037\275\223\323]=w\374:\274>\361\371\274f\303\275<\256\n\242\2745\344\340\275\300\024\340\274\017\202\243\274?\213j=\212\315\337=\204Y\000\274,k\241\273\256\205\251;\211\032==\371\203\r\276\024t\306<\251\264\233=\316*R\275\345\3316\274\203\005\222=\010W\013=GAP=\370;\206=\352\263\226=i\357g<\262E\251\275\302\366\212\274\305\246\207\275\332.\024<\177\354$=*\r?=ZHv<\324\352\005\276v`\333\275\261\t\341\275{\306\314\274\017\315\255=\305F\336;\312\343\370;\276\226\301<\3567%=\323\202f=\340\334\021\276iA,\275\213\263(;\277\374\204\274\226\206\344=\366\261[\275\255\r\010\275\0140P=\360\201\005\275\002\252\211=\245Kx\2752X\322<\325\3122\275T\363p\2752\202\211=\353\001\336;X2\311\275\356k\342:\022\323\\=\001\331>=(\226\217\272\255\222\224;<|\256=T\206\201\274\215TS\275\006H\204=\312J\234=\372\032\344=\322\023\244<P4\247=\036\207X<r\241F=\001\377\302=\363[c<ZMf=w\'X\275B\020\265=l\016l\275\230\007\226\275\314\206N\275\237\340\366=\2176*\275\322:\265\274\215ty\275u\204b\275\335H\003\275\230\342\277;p\351\232\275\227\024\037\274\377\347\276\275f\031\224\275j\373\204=v3\270=\2645&=Dp\267\275&-\320\275:=.=\2677\006>\365M<=\376\004[=\234\0272=\361T\n\275\340\037\033=:\340\227=\212\205\261<SC\232\275N\n7=\362\222\325\275^_*9\237sv\275\3573\224=q\327l=\217\250\262=Db\224\275\177I\363<\366\202\266\274(\001m\273[\304\'=~:h<\203\231\344<}S\031\275;\342t\273\364T+=M`\037\275cHe=\026\\\350\275\203O\361<\020F\342=pP\330\274\030+,\275ba\337=\226)\324\2751R\'\274\310x\207\275\005UH<\361y\262=cO\262=V\227W\275K\225\364\274!#\254\275\"\234;;\n\200\233\274*\213\250=\177\276I=\275\004\036\275`\3373\276\002\210\316\275\021Lu\274\2714\302;\003<\235\2748w\000=\226\233\032<g\214\350=[\355+\275x\240\363\274\366\250\014<;O\032=\215\365[=G\354a:\302\340\255\275\310\177\244=\257\\u\275\371\202K<\273L\014\276\267\356\214\2747\213C\275\006(;=\361\265\252\275\024^\234\273\3512\307\274\240E\"\273J/\003>g\363A=j\342\027\276\0175L\275\242;Y\275\2242\314\274K\310e\275\207g\220\275\240C}\274\204*\272\275\0218\035\276\3111\376=\207\026\\\274zG\360\275\323x\245<\233\035.=\3303\033\274\036\330W=\\|\234\275\335\022\225<\364Wl=_\237\021>#D\206\274\227\377\304<V\230\337=LWE\275\261\357d\275V2\242\275\335b\303=\345\014$\275\032Kk\274\321\006\022<\002\226\303\275\037\367*\274o\3125=\266\261`\275y8\270\275c\345\361<[\216<\274\272E\357<h\032\367=\323Vg=\256\220T<\357~\204\274\234\252I;e\340\227=\240\0302\275\253_\215<\245M\226\275H\260C\274[\364\034\275\235\250l<n\224\214\2758\313\207\275\0035\366\275^\376\233\275\333*\034\276\220\030\360=\237\2442=M\301\264\274x\341\205=02\247=\366\240F<\270\232\240=\200e/=N\304{=\226R\360\274\347\033\"\275l\267\207<s\322\315;h<\263\274q\022\220\273\203S\322=Pb\300;\277\246\256=\350\274\r\275\374\333\270=<\232\310=\335.8\276\366! =i*>\274\316\301\263\274\3745\244\275t\340\001\275%F\262=&U\321<|\245\304<\023\017@\274\340c\010\276\353<\023\275?\323e=\342\212x\274\2211\267<\"\027\251\274\003<\360\274\312o}\274H\013\372;_\307>\275\371\026\241\275\347\367\223\275\352d\354\274\305\302\226\275\241\333\255\275i9W\2757\tk\275#\260o\275\341\325\237\275z#\204\274\275[n\275\267\211J\275J\362f\2752\316\005<\236\314\205=S\235\022=\340.\225\2732\354\005\275\232\025\311\274?\350E>\3603\314\275\'\3729=\321;\367\274]K/\275\340\205\010>\243r1\274\235\275{\275\032\022\323=\367R4<\301_\333\272]4\337\274\177\214\210=\355,\037\275\324BK=\317\363\231\275\035\256K=\002=\241=\270F\204=\253xX\275\267CN=\'\205P=\347\242\277=\315\002e<\264m\360<\376\375J\275=\324\233=\3549\003\275\277b\326=\\c\367=/\342\352\271\225\240\006\275\010\340\251\275s\335\244=hh\257\275\260\337\263=\243p\025\274Y\371\227\275\021\010b\274\332\037/<]\267\253\272\221t*\275V\000\306\274\004_\007=i\'>=T:\020\275\234\037\010;\251\364\035\274V\227\361\275\033:D=\242\014V\275V\320i\275\224\010O\274\027j\237=\r\253\333;I\017\n\275-q\244\275\206\336\341;\271R\212<\325\375\017>\302\316.\276*\203\221\275\333\371R\275\206\211W;ww7=\275A\262=\366g\n=T\034\010=\254\374\001\275\215\354y=4\340B\2744e\\\275\264\244\207=\333\3723\274\275\216U=L\210\355<\332<\235\274\255/\341=\021Q5<b\027A=\205\374f\275\344\344\217\274\216-\261<\310\334\264;ucB\275\237\325+=_\334\304=\rg\266;C\305\341:\324+\034\275N\004\037=\333\302\301\274\271\370\002\276\330\277`\275d\350\033\274L\245\337\275\031$\213=\242\220\024=\234\227\330\274\271\"9\275[\037\016\275\350e:\275\217Q\032=n\365N=\234R\221\274\333\226\200=W\373[=\353\316t\275X\271^=m\t\203<\"\355\305\273\013\313\320\274+6\020\275\3400K=\231\301\014\275^\323\314<\t\244\034=3\016p<\022\210\301\274\0141\235\275)\225\277=\256\274\201=\303\344\264\275\215\314P\275\rj\333\274\010R_\274P\365#\275\351K+=\'\257u\275\232Z\000\273+\347\241\273\361\205b\275b b\275\205r\343=\215=\347<HQ\177<KBy\274\2738{=*v\020\274\221\014\205\27517o\274?xz=0,\306\2751\350\205=\000\221\223;\203\"3=\374N\007=g\234\222:\031/M\274_,\357=\310\220_\274x`\243=\206\013\333\275\346Cg\274\346\321\241<\020\206V=/3&=$\225`\275\232O@;\267#\243\2751\366\345\275\263\273\215\274\335\362\230<\273\"\363=\304]{=s\366\255=^\215*<\206\250L=\254\300\222<\201\263k\275\320\206\317\273f\234\303<\274\333J\273\200Q\345\275\213L\236<\214\034\344\274w;\372=\320e\276=E*\240=}&\274\275\336\336\220;\\\272\351\275I&!=\025\024\365\274\347\007\316\274\225\346\017\274\212d:\275\310Bn\274\0177\333<\025\000\205=d\314<=2U8<\345Q\001\274\350$\246\274\203\211\223=\237I\325<\312\270\224=\371d\003\276\005fp=\332\033\257<`\355\211=\200\313\265<\362\327\211:\341\354T=7>\230\275\353\205\231\2743\254\034<8\260\277=W{+\275\315\005\022\275\224h\035=\240\273\230\275\30657<\266\252\346<\031\201\351\274\200b\217\274^K&\273~R\225\275!\336\300<\353CR;G\364\334\275\273\330.=\342\001L=\244\235i\275!d\017\275\014\325\037\275\202E\302\274l\255\220=1#H<\177\313{\275\210\331i\273-\204\314\274)\363}=$\032u=n\374J:\322\213\310\273K\021\031\274\227\322\337<\224r\277=\001\246\200\275\277<\017\276\3651&=\314\204)\275C\004\327\272\302\321\n\273\211\243\314\275\326\367\255\275\323=\207\274~\244\212\275o)\221\275\353\263]\275\363\202\030\275(\216\321<\014y\316\273\262d\220\274\277\300\200=\240\301\263\273\303G\275\274\230R8\275L\n\314\274\031v*\276\2651\320=\226\306\231<\304)\210\274\312\367Z\275\332\\\032<]`\322=\307z\001<~\330<\275^\375\244\275\"\210\321=7\020\262;\231\212\231\273\364C\346=\021;?=Dt\016>\240\326!\276\215\325\016\274\337\361B<m5\267\274\241\252\277=\235\236}\275\200\231\036>\215\217\200\273\266\244\010=\346\211\256=AQ\216<\025\310I;\223\271\305\274\216\363\226\274\331\200\r\275vf\226\275gr\023\276F\202\353\275a\332\261=s\371\232\272x\237\245=-\275\316\275Mx9;\005\232\037=\210\366)\274g\260\223\275j%y\275\262\337?\274\273\'(;\324\241\226\275\374`\006\275+\272\304=\227\t\214<\377\270\263=77\213\275\373\273\242\275\355\033\205\275$\223\274=/\304\236=\202\310\276<\203\373s\274\305\rH<\261,\235\275\247\242\227<\3337\333<\324\256\024\276\013bg\275w\2045\275a\213\223=\3356\002\276\230p\355\275\253v\361\273}\271\215\275d\255\302<=r\000\276%\375Q=Y\363\310;]\306\013<\320\226\210\2753\000\320<\370_<\275\362\177\235=\003)\262=\321\361V=u\261\211< \217S\275\377W\277<^Q <s\002\365<t\344y\275[\344\256\275Qj\330<s\013\334=e\033>;\306\201\315\275\256\\\227=IEm\275\177\030\326=;\353\232=\n\331\026\275\331\207K<\2611\210\275\350W\021>\222!\27477!\314\275\320\366\242\275e\2049=\224\361\267<\265n\252\272\216\246\230\275\243p\231\274g\227\036=#t\247;P\251\241=\277\302\220\275!\363J=\242]g<~\201\364<LT\356=\212\005v\273\r\257\227\274\337\240\006\275%\357b\273\006\351(\275\326\177n\275)\3534\275yp4\274\231\025\221=B!\r=\235\344\003<\202\026\265\2754G\305\275E\245\320\2747_c<\0312\247=\226\307\226<hk\272\275f\343\254=\203\327R\275\270\226R\275\263\001\261=H\365\234=b\251\244=f\212^\275W\231P\275\3371\024>v\277}\274a\207\337\275KB\262\275\010,\262<E\321\271\275\375\346)</\355\036=\202\021N;I\032.\2756\260\223=\021=I\274\234\221N\275\006 \340\274\234(\"\274;s\273=Tv\n\275\346\033\343\2741\257\352<\331P\t\275X\037$=\257r\037\273\021\3217\275\365,\303=Z\244(>J\265U=\004\343a\274\370\302\260\273\355\r`=\232C\306<;\2210\275a\"\"=[\2149<8\334\037\274b\nX\274c\217W<\337\264m=\263o\327\274\355Sn\275<\231N<\021xI\275\354\327#=\273\243%\275\253\317\255\274\353\321\003>\031\351I<\276I\212\275\331\266\241=mfu\274q\365\032\276\243\217\265=9\277\221\275s\017\264=\332\364\201\275\te>\274\246=$=M\024\273;\331\031\263\274R\301Z<\033\346\261\275\345\256I\274\377\365\306\275\226bu=E\210\325\274\316\221\341=&\357\014\274\213\373\264<\354P\212=\307\2031=\027\252\010=g\317\014\275\t\353\201=\354\322\234\275\275\267l=h\010\350\274\354\366B\274&\304\007<,7H<\337\025Y=XiK<\201\3046=\335\350\201\275\245\355\212=Q\034a=\313d\235\275\312\3036\274!\353\244\2757\345e<\202\343\256<\252}S<\206\370\350\275\307H\212\274\273\247\264\275\024\030\250\275\336&\205=\361\277,\275\263-\227=\302\252\240=c--=Ke5\275&\320\264<\201\357\212<?\204\314<\372\245\276\274\\Q\340<\353e\243\275\364\247j=\017\201L<\354\356\334<\225\225\257\275K\372\345\275\333\346\230\275\355\233\203\274U\316\202\275\265C8=(\033\333\274\206\003\222=Y8\360\2730\203m\275\022!\241=Z\"t=6\356\014\275\024\226\322<\342p\236=T\246\024\273\300z\300=\024\001\273\274\256\375\327\275\035\343p=\275\370\374\273=e\016\275\252\3327=y\314A=\342\346\367\275\'\220\345\275Y\263D\275\273_\030\276w\346\317=\035\367\177\275\355\207+\276\360\r\252\275\251\220\'={4\211=;\034\353\274\013\030\004=\321\323\310=\023K|\275bm\330\274\002\027\250=\n\324\314=\004mS\274\357\223N=6\324\251<\205\026\271;U\256\025\275l\031\261<\356\2228\274\231\030\037\274\213\272\002\275\226\351H\276\273\247t=&;\217\273\014-\250\273W\354V\275d\216L\273G\242\022\276L\222\331=n\365$\275\010\034\330<\364\010\260<\362\315\367\274\264\0059=\355n\033\275\206\256\264<\2531\223;\367~\316\275\366\250\225=+\360\207\275n\206\335=\307N\375<\\\215z\275:\0256\275\037\277\007=\035\210\222=\262CK\274@\250\260<O~Q\275n\000\256\275\033gC\275|r\316\2757\210V=j=\363\274\274\\D=\335B\210\275\217\242\210;t\351\230\275\020\n\033=\016\201\367<a\360,\275u\341W=\365\222\031==L\003\275\t3\265=\367\3653=ba\202\275\204\342\235<\217\355\317<_(\366=\024\255\007\276\337\022\033\276;\376\213=gK\235=\314+V\275lp\n\275\211\352\274\274Wl\217\274\023\021\346\275\3568\263;y\321&=\017\207\215;\032-!=@\325\206\274\236\271\310\2746X\302\274`~\204=\321\240\206\275\3105)\274\362\201\345\275.\036\230<\013\371l=\025\331\004=\344\232r=\235\023\362=\017\265\326<\n\367\226\275j\331`\275\"\213Y\275\254\370\255=\261\345\'=P\2633;\377\342\346\273\273(\016=O\360\206<\3017\022=\364\226u=\374R\034=\345l\325\275\373\375\340<\303\245n\275\t4v<Ss8\275\270\260\314<\214\010X\275\021\004\244\275\000\036\034\275M\n\210\273|\315?=\304\362\314\275\233z\025==k\275<\306\216\203=o\"\353<v\304\036=(\r_\275\2502\202=3|\203\275\256y,=\306^\247=Z\031\252\275\254\266\010\276ai\361\274\373\365\214\275\350\001\240=\306\317\006\275\037\274\017\275\323\301\240\273\207\314\317=\261\312n\275\361\247\341=\251\225h\275\340#\301\273\316=\225\275\206\224\245<\265\220\234=o\324\r\276\016hA\274\255\265D\275~\207\264\275!B#\273$\344c\275p%9\275*\257g< .\020\275p\363r\275_\343\321=\360!0=\302Q\010\275\347\2456<l{S\274\n\235V\274_\200\262\275\223f-\275\202\362j<\245\233\220\275\214M\311\275U\361\234\275A\366\226=o~%\275m{\347\273\3118\235=\357\021\241\274\326\\_<\205\236\025\275\216\237\026\276<\213\003\275\204\022\271=,N\002>`\255\325\274\257Z\232\274J\317\301\274O\206\226<\234\333\270\275\335+n=\300{\211<\017h@\275g\321\216\273\000\373\221<\222\177\201=\245\373}=Q%\025\275\376\0144=e\275\267<\346\216\035<\357O\027\276\313r\317=AD\240;\340\r\027=\352k$\276\225\033-\274\023\356\302<\033\236\255<\373?\215\274\332\345\246\273\3565\253\273\273\264\204\275V\240\261\275[\024<<\010\325x\274\316\214\372\274\245\205,\275H\014\341=\304|5;\377\320\217\275.\342s=\017\nM=D\014\236=\017\374\246\275J\207\205<i\254\216<\215\201\t=\321\233*\274\211Q\317;\240\023\371\274\355u\212=\355\213\243=\221\307\274=XE\237\274\311\364\264\275A\370\263<P\276\214=\021\350\317=\000_\227\275:\312_\275\311\013H=\355m\230\275\231\350\346<\302\351\371\272\267\337!\273\251{\030>\336\241\332\273\002\2649=\372\217\210\274\224\310t=D~M\275xvJ=K\302O\275\027\361\251<^)\326\2757\r\003>\374\241\275;\376\345\370=\210|\234=a1]\275\274\\\247\275\331aD\275\350t\032=\177y\340\274\327\372M=hC\305\275\333\215\262\274\034A\335<\267e\202<\372\237\244\274\241\302\021=\227\317\301=\177Y\276\273O\2563<_<\322<\375\257\237<\035\034C=\024\252\206\275i\"\271=\353\374p<\316\213\261<.\324\035=\270;\r=\352\327\315\2759\217X\275\016\3629>\340\214\316=)\ri=\336\035\273<G\376\200\275\270\355\202\275J\023\357\274U\201u<}\024\261\272E\274?\275\204\020\025=\005\226e\275\366\267\303\275\221\260\201\275\312\036u=h\356\250\275\276\'\035<\20537\275kP\217=`K\265\274\257\256\364\275\032\271|=\225\256*\274&\230]\274J\273\342=7\316\240\274\004C\327\274zz\372\274\377\362$\275\227\372\377\275\365\262\321=\225Mp\275\367\210J\275\360\031?\2759p!\275\246\3210\275\366\312m=r\337\030\275&^3\275\234\236\247<\207wP=\350S\374<AG\003\276\273S%\276\021\366\301\275\216\246W\275\335rC<\003.\200=\254\220\254<\2701b\275!A#=\272\312\246\275\003\031\211<E\301(\275\324}\303\275\317\032B\275\326\017\021\275.G;;\372z\333<\316\235\273\274\357\270\211\274\353_\345=0&\271=\005\341a<Vm\226\275\275\254V\275\347~\256\274=\367Q\275nl\200<\247\362\003=\004\214\n>a\033\252\273\264\253\021\275\351\304\265:\334\201)\275?\230\022\275&I\021\276b\346\030\274\305R\215\275\350\206B\275\217u\220<Z\305s=\237&\257\275\237\354\206;JgU\275\032l;=\241y\211\275\324U\230<D\261\261=\323Q\365\274\254\260\341<\210\177\201=\366\265\247\275>\213\212\274\376M\226=\3106%\275z\256G\274)\2317=\256\302m<0\356\006\2764\324X\275\346\350W=\364n-\275x\310&\274\031\262d;0\332u\273\323q\315=cK\003>\255\2321=\254 [\275#\214\271\275\207<D=\201\332@=d\3346>\016Vh\275\370\324\253<z\203\257\271\220\373L\276\203\240K<\301\230;=d\325\331\274\243>l\275pk\302\274\210]\004<\272\272\331\273\016+}\275dH$\275\277\252\212\275e\3721=9\321W\273\207\323.=\331\340\315\274\374fd=\205j\263\274\243\035\210\275\300\264\353\275\334\255\337\275\351\363\023\275\346\360\206\275\334T==\334\013\032\275\201V\021\2743c\n\275\225\246:=\031*\001=\207\270n=X\327\001\275\310$\202\27599p<\357\357\233=i`\027:#\2448=\213\242\246\274\356i\334=\035\244/<U\322\263\275p\002\026\275\207\tn<\313\260\216\275j\235+>\324;l=\251&D;\225!\006\275%\347L\272D(\036;\325\257\225=\014\222!=\023\305\001\276\255*\346<\263Y\311<q\3764=\0368k\275\344\322\031>[\230\202=\263\210\210\275,Z3\275\206`\216=\000\020\267\275\000\372]=+p\214\273\223\215\330\2758\247\026\275C\257\006\275|<\335\274\245Q\236=\247\336?=\270\301c\275\351\213\337<\207\361\246\273\342\207\226=\372\210\232=2\263\200<G\2756\2752c&\274?\247T\275\202\026\337\272A\216_\275\223J\204\275\206v/={@\356\274\205\213\205<\341R\026\275\"\177\302=\\K\177=y\037\002\276B\333\001=\03762<\026\005J\274\376w\270\275\025\340`\275 _v<Q\346\333=)\r,\275\037\342\311\274Z5\211\274e\267l=\252\325\005=\277=\317\275Q\263\205\275,4\240\275j\337\201<\034\016;\275a\306\206=\001\326\316=.\212\351=\375\243\252\274\215\345\005\275\303\022\337=\016\302\017\275\220j\r\275\r\336;\275\273\364f=\3763\235=\350n!\275\243\346\010\275\343\010\201=i\201\360<\270\362\013\275&\232\213\274\215\001\264<|\004\177\274\317>\017=yP\322\275\335G\305=\006\203\231=\216\372\340<\3263M\275\027\336|\274\273\357\005=\r\224\006\275\2624\327\274\203\023\202\275\306\252N\275\235\377\265\275\236\273\270\275\035\257\323\274\314\275r=\376\231\240=\020\222\312\273b\362\023>\037\220\244=Vh\277=\201\036\203=g\334\254\275\307\325\356<\\+\034\275\014\210 \275,.\t\276\361 \226=\020\232\223\275$\337\337=N\351\200\275?w==\336g\313=\355k\245\274\245tG\274\030\323\321<\n[\226=g,\031\275\r\253\203\274\036d\242\275\244\213\271=\364\2368\275\221\251r\275\316\317\205=\343\344\305\273h\202c:~\020\240\275H\334\332\273\307\261\036=)B\204\275\301\266\330;\030\373\021=\305\234\327=gD\252\275-\205;\275\204\347\317;%f\273=\327\037>=\361\275\242=\000I\320;\316\234\270;T{U=\270\036\t<\002\224\317<\374B\300= \221\024\275\004\331\014\276\335\214\230\275\356\213\260<\267\363%\2749p\365\274\245K|=X\351A\275\331\212\261=\321\234\362=\n~\275=|\002\r=\202<C\275\030?v=\370\211\322\274\236d\323=\245h\222\275\202\370\204<\275\332P<p\272\331\274s\225Y\275\350\034d\274\0315\314=\201\224\243\273\004\262\351\274!~b\275\007C4\275\372wd\275\212\004\017=\315\2520==\002N=\223\317\237\273\337\372\212=yQ)\275\345j\263\275\264\221\014<\022^\033=\353q\205<(f\"\275?a$\2759\034\277=\020\306\340<)\241\020\274\262b\302\275\352\0265<oE[=u\336(<\213A\212\275:\022\342<\023===T}\326\274\005\210O\275\024\250\377<\"\261\315=\354\027\"=\033y\004>`\017\020\273\266\2213\275\3243O\275\33082<%\034\237=\321>\300\274dR\037\275\017`\326=\224L\350\275\247\336\231=\214\036G\275\212\010\362\275\334&\241<\333\337\201\275Gp\265\273\324\270\251\275\2501m=l\311\331;_l/\276\245\235\245<\"\301.\275~\322\362<\366\370\305\274u\231\211==\211\212=j\3134\275\331>\207<\323\275c\274\314\250\357<=\026X\275Ko\337\274\262\t\226=\265q\014\275\375\243\330\275L%D<o\362\266\274\024\212{\274a\314\343\275S\265)\2755MD\276xFb=^\001A\272\335\263W=\3242G\275\334$B=J;%\274{I\203<J\223\000<\221@\2229\000vF<\355I\216\275\227<:\274\222\223\352\274l\262\306\2751\372\273\275\315\213\207\274#a?\275\243\250\320=\260!\n=JQ\304=\373\314\022= w\227=\017#\022\273\220\r\252=\024p\243=\273\337\227=\355U#;\3741\210=\276j\210=\266\213\217\274B\341\372\275\206\332\325=`\360\255<w!\261\275\276\030\246=\362\364\036\275C\000\014=k&\002\276%\032\257<\365]\353<\366d\202\275\363\264\210\275\223\021d:~\014#=i\313\013=\037<\235\275\377(\026\276\276.\373\274\303\201W=\316\217==\233z\301;9\002\203\274\235\221\203\275\326\375\204\275\016^\210=5\241\330\274?\211\350\275T\241\020=\352\235\024<\t\277&<\274Y\005<c\247\322=\200\220X=\\\354\236\275\361\374O=C5\030\274o\263\036\275\235\362/\275\214\220\203\275f\217\356=o\373\r\275\216\335\223\275\006\0104\274\323\337h\275=\315\216;\031\016R=\031VL\275\rx\270=\247\213!:\353\031\226;\222g\013=\232\2744=\305\271\223\273\353\256\271=\220\321\000\276\350\300J\273\354\346D=v\274\031\275\257\261\t\275F\3105\275\337\034.\275:\273\263=\350[\211;\352n\250<\225\366\304\275\320\302n\274\210\022N=\237\253\211;F\256\021;\235\371\244\273BKT=03\314\274}\024\261=3\337\207\275^K\323\274\"\035\313=\"\254\210<\021l\342;\370\307v\275\222\365\325=\240\010\253;\241c\305\275OF3=\221-9=\224\3374\275\267\342\325\275mu\246<\014\246\244\275\271\352\020=\345\352\252=;\320\014>\271\256\202=\301\204{=#\314o<\273\365V\275\220\2319\275\032\263(>&R\004=4\035K<\032;\272\275j\204\272<\220@\264\275\223\335\376<\354)9=\232\201E\275\027/8\274\206[\030:r\261*\274\334\314\204\275Q\3771\274xV\335=b\037>=\355\177\256=\254\375`\275A\002&\275\2460\330=\304\236\250\274\310*\301<+a}=P\242X\275\215\331\200=\325\030\030>\235\341\207\274\037$\210=P\205\025\276\256N\243<S\241\213\274\326Yp\274\315v\253;0,\311=\272\310\267\274\260\206\034=D\300\350\274\347d\023=5\371\211=\204\202\221=P\251\372\274l\214\375\272\316\325\262\275\371\"8\274\303\340U=d\311\321=\244CG\275B=\247<X\'\374;Z\334S=dA+=\037\203\337<\3450>\275\010\033\201\275PyH;\321R\210\275\250\221\365\273\363\325\355=\201F\275\275\206fA\275\035\257-<\356\355\024\275\260\252\035=6\022[<,pt;j\202\337\275;\034\240\275\301\255\257\275vJ\314=)\353\'=K.\357\273\232\250\243\275\262\"\270=&\214\000\276K\357\340\271>\256\235\274\267\033a=\244\032;<0U\366\274\334o\n>\346:X\274\'d\335;\351\233\233=k_#==\305\253=\333\332\201<\017\302\206;s\2379=(\274\354<p\026_\275i\371S<\t\315#<j\004(\275\363C\247=qS\222<H\274\274<\333H\252;A8!\275\320#\340;\r\001\237<\007\275M=\331h\016\276\243h\276\274%\330\356<\236\265\036=N\2751=\351Q\016\276\377F@=\260F\213\275:\252\010\275S\322\240:\232\363e\275\016\360\220=\305)\327<\374\032\026\275\026\\\340=\350\321\224;\312\3410<\227|u\274d.\242<Y\246\262=t\332\267\275\375\200y\273\200\355=<\311\313\017\276\325\375L=\326\243\216=\215\267\242\275u\264\220\275M/G<\333\022\245=\222\\\024\275\r\321#;R\301/\275\2367\021=\\Og\273\251\375\037<\000\3379\275\310<\211=U\315\336\274\302\313!>\223\333\245<T%\232=\301\215\211=\303\344\210=S\310F<(\205\236\274\333\037\";%\373\262<\370}.\275\372[\206=\321G\232:q\007:=\214\372\025\275\325\357%=x/\243\274\331\202\270\275ss\234=\225,|\2752O7\276\251\375\234=1\302\024=`O\250;\246ms\275\253O\334<\024i\343:\r\306\332<E\243\363\275O\ts\275\"\316\242\275/\331\274;\267\254\345<e$\023>.\317\014\275\242\3211=\323LR<\215\230i<>D\364<c\227\275\273\377Yw=\266\327\224\275\367\257\374\274\223\246\227\275 J6=\036\006\332=\3539*\2758+Y:\0240V\274\232\310\025=\276\267\236=\230\230\221;\030\206\300\275\n\307\225;\264\322\343<\342\353#\274o\366\034=\010\347\004=\344}\031;\214+\252\274\re\250\275G\254\261\274\214\"\371<\215\337\234:\346\213A=Si\013\273\324\326\352\274;\314\316\275i\220\204<\336S\340=,\360\243\275\312\021i\275m\014\035=\242w?=\342\370G\275\265\344\253=\342\005\004\275kY\000\274\354D\303\275\022\270\330;\206U\245\274\022Fd\274\333\032\333\275\034}$\2765\247\325\275F\374\031\273\031\233\233=\302`l=\242\320\023\275\232\237\312=\351^m=\202\n\221\274\363\354\r\274\205\252\251=\361\031\240=c\271\204\275S\324p=\357<\32697\223\014\276T }<0\2200\275\215I\350;F\240\"\276\334\207u:\261\214\204=/\r\000=\003\263\010\274,<\004=\361\350\332\274W\225z<Z\210\322\275\226\263\'\275\031\345\224=\346\257\271<e\220\336:V\304\231=\362\325\217=\3318\205\275\205\205d=\t\347\222\275V<T=\031Z\177\275&\312\036<\370\2220:\331j\357\274k0U\274G\332\204=\233\353\227<\204\376\373:\262\006\214\275\273\322B=\331\370\332\2733\303r\274\223\"\304\273%\364/\275\274`\276=(\367\225\274\301\224\\\274\000\223d<\030RA>\005\000\036\275\037\213[\274\216\023w>\332\375\347<\226\271c\274f\027\221\275A\034\267=\006\023\333<*\203r\275\235\211B\276\263\026\324\275\370q\023\275MC\030<\035!\321<\307\342\230\273\253\324\005=\333a\255;o\206/\274\341B\237\275[7*<\031\007\262<>\364\200\273M\237\217<3\013\377<\314!\236<\024!\345\274\342@&:\207\330\177=m\334\317\275\002c\201=\272\335V=8V1\275j\003^=\373\016\256<\343*%\272\237\277\300<\014\225\357=;\333y\2755)\261\275\200\275\201<y7\370\275|\360\222\275z\032\207< <\355\275U\377\233;\3651\240=\030`\315\274\220C\215\275\003\337|;\032\267H\275\035\253\204=\022\002\242;7\354\001<\025Oj\275R\325\322<\".\210=,\202!\275Z?\225\275\022\257\247=\025\245\344\274YnJ;\031\037\350\275\227i#=\335\357>\276\261>\022\275\0272\271<\371&\270\275}\351\243;S\023\263=\207\311o=\r\002\214=.\266\032=\364uO\275\262\t\226\274\356\331%\275\"\210\212\274aqV\275#J\355\274\235\233)\274\346\306\300=i\201\276\275Q\211\300<\333\260\354<5\314\204\274\224J\207\275%}Y\275b\264D\275\367\021\251\275r\362?\274\220{q<8\013*\274\220\341Z<\236\346\n>O\224\211=%|\216=\300Zy=dt\001=(t\245\274u\275\220=6\361\340=\036p\214\275x\306\216=R\t\240\275`\253\016=\177\373v=\013\202\030\275\233\215\370\275\345|\304\274#\223\272\274N\324\270\275BU!\275\000b\262\275\333\261\243<S\270\035=;s\016=\037W\306=h<\333=\327]V;\002\353\200=\317\021C={\030\255\275\216o\217\275u\352#=U2\236=N\234q\273\007p\276<\201\266\214=\002wi\275\031\003z<{\206\252\275#\315v\275\312\344\265=\\\000q={\244\211=d\020\264\274\241y:\274\245\263\353\275\'T-\275\355\3355=\004W\373\275Z\317\216\274\354;\301=\251\241\271=\363\215\020\276\200\357\201<y\3240\275\232\232;\275\214\2444=\233\230\030\275\310.\207\274\212\235H=5Gz=\330\325s=+\256\252\272\311\375\202\274\023\302\220\273\322\261\332\274\251x\347\274>\230 \276R\304\260;:\203\274=S\250\323=b\014\217\275smP=\025\270\371=\375\223\301<\267\213\235\275I\221;\275\\\241\035\275\205#\035\275\375\217\235\275[o\014\275\3666I=f^\303=m\2462=\027E~\274\n\346\327\275\366i<<\332\377\353\275\324\024\300\275\314a\352\274\214Q<=\342L\n=>\311d\275\313\247r\275\3555\013<\365\374\241=\002\020[= P\204=\353\017c=]\321\226\2752\375}\275\000d\205\275h\306\277<\305\264\245\274\222\200\246\275ts\314\274\271\275$\274\230\351\326=w\340V\275\343\263\333\275\030\333\024\2753\273\222\274\213i\354\275\352\013\211;\236\205\243<\332\272\277=\323\212<\275\200\021\327\275\205\231R\274s\014\312\274\351`\313\275\304\006>\275\265oh<\010m];\301\300\266\274\243\202\302=\0102\306<>\223\347<\027\200x=W\3029\275$\375\257\275?\270n\274\207}\370\275\t\261\220\274\244V\030=\265\265\035\275\314+\241\275\337I\222<\240A\324=\001^\276\275\356\310G=\007l\200=j\037\025\275\243\034q=D0\275;\230\207e<\270\006#\276eM\307<1\251\006\275\216ZM\275\336\204\"\274\315\335\204=\263\260(\275j\035\210=v\253D\275\257\253\211\274^\372\360=\005\234\006> \t\375<h\0057\272g\371\206\275\325\336$;\261\261\017\275\334\372u\275\267\r\025\275\245\325\257<\254\251\000=U\037\327\272\263z\363\274\273\006\010=\204\275\003>\317\216G<\356\252\223:)\021\325\274 #\264\274\000\234\236=\204\263h=\200\214\201\275\262&\313=\313\355\352<\364\264\356< d2\274\207\263\367\275`e\375\274QR}=@\372?\275J\242\366<%\315\233\275d\272\356\272C\233\337\275&\177l=\267\037c;\265c\224\274a\000%=Q\276\304<]8\n\275\237K\370\274f\\\202\275\265\253\n\275\347\207\313\275\177g\304<wM\312<\212\261\332<\365Ba=\0046\204\275=\361|\275\256\213t\275\322\203\376\2735\324\310=\204E\362<\364\372\243=\312f?\275\361w\375=\236\265\230=f;!\274\'\2538\275\323^\177\275\340\346\230;\346\341\310=\317m\001=\037\033\326=C\370\177=-\252\030\275\312\006 \272H[\326\274\235D\037\276\327\356\235\275\3506\t=\224\212\005=\345\250\232\273i9\247\275E\372\024;\3075\3259m\361\001=Ga\3529\245\355\322=\242\366\263\275\310*\031\276\217U<\273\256X\365\275\221k\325<\337\343l={\214Z=[\257\333\275\034\3337\273\2140\220\272\377\216\001>&Y\021<\232\336\305=^<\310\273\203\343l\275\017\033\206\274d\277\032=\267O\227=\225\3319\275\021@\201\275\313:l\274\202Q\272\274N/;\275\350\234\226\274\300\303\306\274\006\000\377\274\305\376\271<\220c*\274\232\267\240\275\230Z\034\275c=\201<\356\261\302<\300\004\301\275\010h\322<BP\201\274y\355\225\274q\002\013\276\243\005\251=\323*\354=\313\231\272<\350!&=\323\221\244\275\261\020@\275\316\267\024=\336\227\274<\342m\331<\370\203\247=HY\226\275\202\333\020=\370\013\240;\227\372\024\275\014\016\244\274\375C\017\276\003\277\324<6;\263\275\006ft\275\214\241\020\276\261\334d=F\343\253<\264Z\213;\014\230I;^m\202=\273F\204\274\356\214\r=\342\276\350=\210C\251<\375}\034\275:\316\224=\326\267\032=\203\317\375<.X\246=\327\3658\275\227\371x\2756Y}\275ny\375=\234\234h=\317}\316\274P\036\264\274\213\211\000\276\275\345v\274\026#\312\275\210\022*=\231\375\301\272\363c\201=;\355|<\t\342H=\235\220*\273Wr~<\256:M=#\367\225<\243\306\'\275!\211\034=\305\240\200\275h\005\003\276#\236\013\273\362E\301=\354\027\315<\221ql=18\211\274W\210\233\274\323u\327\274\342+\013\275k\255\364=\345s@\275:\361\022=\005\300\315\275|^\016;\206\333\n;\205\230\234\275\216\337\351;\276\240\264<\272\372\265<\357\267\370\273\230\273\234<\345\016~\275\316\001=<\352`8\2750\014\270=\247\026\354=I\025\220\275>\373\027\274O\033\275=\247$\"=A\350\024\274\262\005\272=\252\214\313<\216+\254;\r\345\353=\236ve\275v\371\323=\313\037\010=\241\264\320=\036\255\256=\217\317K=S\025\275=V-\014\275\262w\304=\351p0\276\177lO=0[\206<\221\316\022\275\372\360\263\275\r#4=\361a0\275\004\026\276<\366\260\217\274T6\003>\350\333v\275\256\243x=\267A\325\275\'\230_=\005\226\303\275\234\317\314\274\0313\264\2743\3439<\031\253\301\275\261\363\212=(Tw<\323\206\300\274Q\300?\275\230\220\344=-\346A\275e8^\275\363\177W=u?\275\274_\036\251\275\213\306:\275-d\312\274H\364\203=q\230\033\2744v\234<\017\225\246=m\241\232<\200K\014<\367\322\017\275_\336.\274o\227\021\275\350\0059\275\236\\\251\275\\\031\214<\3665?\275\262\215&\276~\032\225\275\024\210[<\352\263\262\275\337\201\362\274\236\020r\274\366rf\273p\322\232<4\007L=~&\373\274_\371\311\273|V#=\240\"I\274\354F\207=\002q\335;\nMH=;\"\022=\256\024\362<\315\3010\275k=&=\351=(\275P!\357;\312\214\221\275\270i\363<u.\247<\332\262\243=\272\261==\350`z\274U\363 <j\024\252\273\356\275U\275\272\3310\275\3404\321=\225\037\203=\337\204\305<\023e\r\275U\323\377\274\316/\320;\023\315\215\274Nn\004>\004#t=Ld\246=\002\350\252\275\375\200^\275J\004\221\275.)+\274E\366\027=\366\271_\274\215Z\260=4\235\324\275\345\253\037>3\315\020\276\312\224Q\275\232\212\223\275\222\004\333\2759\007\272=\252t\226\275(\013\312<\311\3507=\312a\307=\277\033\205\275\342\222\201\275\' \235=\322#\213==\272\001=\335\251<\275\000\230*=\207\264V\275\235\2121=\254\262\355<\370\032\311=\2634!\276\007k\314<\022\356\237<N\017M\275\356\034\203\274\021\231\277<\313w\264=f\203\222\275\301{m=(\200\233\274\017\026\332\274~\3553=\336sl<s\331::{\367{\275\357\273\370\273\306\3560\274(\273\353\275\245\n\366\2756.\230\274c\022N\275\377\244\207\274k\326l\275l\337\272\274\007+\216=Ex\205=zz\201\275\204\213\346\274\004/#\274\003<\247\275\007?\357\271\371\314\301<\242\217#\274u\203\336=\223\236f\275\003\263\341=\213\331\226=SiA=\014\232\000\274\373CB\275\204\307\346\274\341\371\240=\3510\204\275G\240+<\260%>\275_\031\310\275\257\241\261= /\243=\316\350\036\275\334\264\266<\244\227\336\272\233\226\272<\321\350\274\275RC\217\272\250\034 \275\221\037@\275$\223\253<\303\331\247<\363@v\274\024w\374<=\300t\275u@!\275?\023\270;\034\331_=Q\334\366\275\004\207\232=.\"\000\276Mm\n==J\355\274\204\374\343=\023\201\210\275\016\373\247=|!\r=+H\235=H\244\267\275\263\274\010\275\347\037\336\275\315\324\312\274dE\014\276\300\314\221=\340+\217\275\325\336_\275\376\323,\274\333WQ=\201Z\312<\334\357\027\275s.\345\274\337,\036<=/&\274\217;\304\274\234\245\220</\364\346=\374b\343<P\236\213=\364\014\202=\336\026\373<\323\377\255<?\370\n\276\275\030\235=K\223z=G\017\377\274}\177\016\274\302\275\244=+\341\256\275\327\003d\275\000lD;NG\207\2733\347\216<\3331\366\274\337v\250\274\242\223\006>Ksl\275\0069#=\300c\241=L\236\022\274\225\301\206\274\221\330<<\273\257\230\274\257\273,>\324\277\331=\250\3268<\331\302:<\317\007H=\354\006\265=\337\332\371=*z\n<\227\276@\275\3325)=\306\362\001\275\321K\276<\337\214\257;\320\035\005\275\364\036\211\274\251\003\250=*u\351<\210\264\364\272\254\033\256\275\323ON\274\n\354\240<\375~\250\275\321\214\374<\322\014\205\275\010L\303=f;\275=\2264\017\276\242z\251=\221Yh=x\343y=*oG=\260F\006;\360\035K\275\264[\206=W\371\343\275Z\236,\275,\360Q\274\217\000\000>\363\246\200\275\3354\232\275\3567\266=V\037\007\276\013\317\026\275;(E\274\237z\n\273A\220d\275\311B\220\274!C\n=\242\315\205=;\020&\275\226\207\001\275\033\373\002<\225\200==Gl\007\274\031\225\013>\333\221`=\257\t\234=\223\004\342\274\256\376\326\274\006\213H\275\216\306\213\275\001\233\374</\310\235\274\0135\017\274bq)\275\3037\001\275@B6<\231\375&\272\340\230\321=\227c\254=w,\242\275\233>\227\274#J\013=\230\314\013=o\354\n=\376\310\204=[\'7\275\304\341\002\275,do\275\330\204\202\275\310\264~:\302M\320<\211\255\376<(7\370;\006`\365<p)\247=5_\231\275\027\355-=\347\241\360\274ds\031=\'\007\016=h\255B>\375?i\275\272X\275\274\226\236O\275B\277$=,h\366\275\374\000U\275\030\242\032=\301(\335<r\305\227;\354\225\003=\351\223\013\275#\341\231\274\2661\203\275d\213\215=2S\262\2754L\242=\000\262\256<\225\327\353\273\3236\004\275\243\373F\275GgC\275\237\277\"=e\203Y:\373\203\306\275*\353\032\275\254\370\324\275\363\364{=l\324\323\274C\312\000>\252\211\262\274<D\311\274\270\304\363\273Jw\267=\200h\312<\311j\n;\021\374\366=_{\033\276\345\034B<\252\374\361\275\300x\255\275\2077O\275\017\016\367\273\352\370n\275\315A\245<\211\326K<:\374 </\322\241<f-\205\275\217Y4=\275\232\010\274*\363X\272w\003\205\274\200\206\354\274g\240\010\274?A\317<\315\005\355;\323\306t\274A\321\t\276\343\027\222\2746#\256\273\372?\3739B\"\240; \031\241\275\244\256\220\272\\\007\244\274\201lb=N\256\225\274\026\010\372;\301e\350\274J\025P<e\013\241\273\2116`<a8\227\275\341\275Y=\t\353\260=@%\227=\260n^=\314\303\356:6\206\207\2753\344\353=\201\250R=l~3<`\342\263\2747\245\247\273z%\227=o+\342\274\272\036\344\274\374$T=q\310\'\275\0100\036=\355\001B=G<g;\n\037\224<\350\231\260=\260/\312=\242\030.\275\332\204\007\276\t\266\226<\341\225\233=\331\360\035=\0134\034>\253\271\005=\372\337\256=/VQ<]\232\205<Z\217\204<\027Ap=\006\351\016=\351\212\323\275G\262\350\274\232\225\232\275\360\033\207\274=\364\026\275\341+\323\275#\304\017\275\230\240\022=+\340\371\273Y[X=C\211\274\275\026\002\n=\352\253\267<)N\'>n\237\001=)%\302\275\263\"\005\273Sb\021\273\024q\267<\212\342\024=\337\325\335\275\300\254\261\273\337q\200=\275\254\370<M\377\024\275*?~\275\333e\223\275\267P\010=\201\343v\275\t\223\277<\0173\257=\247\205\014\274\026\253\265\274[v\365<\252\205j\275\214\013\300\273k\331\234\275\004\2302\274\006\300\234\275\321k\225=Z\220\202=\213r\221<[\234\000\274\246\276\214=\264\252\214=\367$2=k\264\352\274\247\204\220=d\207\341\274\314\204\003>\032z\027>\356\214J\273U\301\000>6\030\033<\352\030\236\275ls\266\275HS\324\273\212[\303\274Qa\352\275\320\035\273\274\305\3077=\007\340\254=\276Zb\275i;\202<\207e\016\275\301\025C=\022\1770=\317$\220<m\315\323\274\275\320V=\005\021\332=\207\301<\273\236\247\311\275\325\256\377:c\374\026\274QdX\274\341%\023;\263\245\334<wu,\274r\326\215\274\376<\352\275\2648\253=\033\313\324\275.\002!\275\026\nz<\263\264\324;\255\244\331\275mS[\274B\302\233\275\017\230C=%\301c\275\216\032\004<N\320\323<\206v\371;\262\264\313;=\220\001\276\257X\277\275\306\321\272\273\226\177\037\276\362\252\216=\037\364#\275\255\327\233\275-:!\275v\355h<\350]\177\275\020\367\237;Jt\236\274\317-\340\275 \022\226=q5$\275\2026\r\276C\325Y\273\205\352=\274\363\356\231=\025\177\005=m\252/\275\350\373x\275\334\nY=\334d\206\275\343\322E\275\245\032\010=\203\312\255\275\240(\261\274\250Q`\275\264\365w<\355,h=_\221\000<\006{\273\273Y\225O=\177\226i\275\320\306\360=F\322\311=dk\322<\320\035\234\273!\275\024>\204\3520\276\346\337\363\275yg\005\273~\201}\275\211\261#=\\\345\223<\201H\367\274\027r\264\275O\242\215;]\330}\275\263\360\r=2\323C=9?`\275\235\374\\\2751@A>m\273(=\3445\350\274{\213\334\275y\214\367<\326\266.9\322\325\344;\317\036\350\275\001\313^\275\032\017\225=\351\n\224\274\207\377*\275\367B\030=\357\243\231\274\347\333\212\275>\340Q<Y!\252=\016\247\214\274rq\007=\347\030\201<AP\007\276\0230!<\375wl\274\013\365*<IMQ=\237\251\231\275\234\240\211\275\036G#>\021\230\321\274\231\177\233=\304b8=\347\355\271<\376\006\267=&\270M\274\227\350\006\274\253\233L=J\213\347\275X\021\234\274\366|?\275d\225\"\275f\005\014\275\370,\227\274\005\000\225\275\266+\307=\235\003\254\274MP\025>u\006\220=\336\262\222\273\277\306\226\2756\374;\275iw\231<Gca\275oh\345\274\265\032y=\000w\217=\367\006 <0tE=\223s\206=H\206\331=\377\215\244\274\032\324\350\274`v\035\276\025sb=;\3522\275t\345\022\275\267\236A\273i[\334=\001\227\002=I\3356\275\0272\260=\022}(\275\237\330[\275\t7\302<\220\213\305<\t\316u\274\357\325`=\010\020T=\261z\225<\344\304[\275\312\002h=:\352K\275;\344J=\014\341\276\275x\337\225\273?L\231\275\224H(\275\310\350\302=\033\207\271\274L\240\234\275\271\'\252\275Jr\247=zB\234<A\305\325\274\351TH\275c\307\033=\227\315@<<\2615\275\031\243\207\275\326\262\361<\354\216\023\276\363:\007>\347\023V\275Lx?=\214q\320\275s*\220\275\310\341\272<\001\310N\275\006I\247<\356\020u\275g\3609=\277\254\366\274D\352D\275:2\275\274\240\354!\274\231\275\233\2754\343#=6h\343\275\277\245\020\274\251AB\275\267\033J\275b\207)\273H\335\323\273\033\254B<\342e\n\275\213\344\310\275\303Vw\274^L\301=\316w\205<l\321\267=\325;\316=h\343\001=I8x=/\203\202=`\"\370<\273\214(=xdo<#l]<\355\216a=qW1=u!\310\273\252}\232=\317E\304\275\237c\224\273,\222\360<8\331k=Xe\023\275Wo\207=\304\340\257\2756~ <\332P\023=S\375\316:\260G!\276\371\326.;m\305\211\275\207S=\274tD\343=\305\315\303<\230\001 =Y\214u\275\357\036,=\006\337\232=\315\357\002\275Tp\236=\032\027\r\276~+\271\275\r\366\233=|\006\205\275d\243h=\270I\247\275OR(=\246 :=1\362\311=N\252k=Qx\256<\342\2675=12\007\275F\312\265=\230-\272=\027\000e\275:\315\013>\323\361!\275\340\004e=\354\2579\275Dq(=\344O\310\275tAi\275\017\244\375\275\251]\225\275~\364T\275\014\266C\272\300<\203<\241\3244\274\241\024\245\274\035_\232\275\252\230n<E\221\260\275~\274\341;\265\270\210\274\345\t\270\274\317s\'=\233\264%\274gD\244;\3426\365\2722\225\341=\343W\010\276\210\331\037=\347\303\034\275`\351\020>\363\355~\274\300\273)=z\256\262\275\226\327\334\274\362\250\355\274r\010\207\274\025\225\307\275\335X\226<\207\2548=\364\215\316<\252\022k=\311\357\321\274\036q\203\275X\250`=4$J\275\263\002\013<\030\370\211;e\212\025=\277\261]=\325\270\351\2754`\227\275a\246\335=}\301H\275%(9\275H\316\r=\035\310Q=\332^$\275F.H\275Y!r=\372\225\327\275g\376\026=\353\273\006\275\244\325\033=\333z\326=\301\226\030=i\2613=P\342x=5\\r=\253m\222=\246#\373=,\361\241\274\023p\265\275\304Z@\275vc\025=\251:\036>\255\251\242;\310\201\214=\242\236*\276\372Q\262\273I\257g\275\0166\256\273\227\307\255<\225{\365\273\241;\233=0\263\244\274H\"\035\275\313\005\256\274\332\331J=\017<\342\274~\003`;\007\206\206\273\330\227o\275W\342j\275\035\307L<T\255\253=\273\023%\275\301,\031\275\351\204Q\274\276\"\356<q\212\310<\277\204\254<V.c<\252\376\254<y\224\306<\237\203s<\343G\330<\342\206\307<w\200}<\000\271g\275\033\335\206=\306\272\301:\230\253\355=\334\246\312\275o\033\316\273\010\204\001;\320\231\371<\327y\311<jw\204\274\247\307\331=\006\325\220=\'\n\231<\363\026%\275\212\007\227\275\264e\352\273\3339f=7\314\256<\233s\276:\251!\235=~\330\256<\207C\225=g\033O=\314\020u<\260\334E\275\332\363\247=u\302w\275JQ\"\276E\004\200<\253z5\274\010\331\252\273\334\210b<yI\304\274\000\200l\275\355lh\275<\021\021=co\025>\332>\277\275\336+L=\375\236i<\325\306g=\277\325\004=\271\262}=j?\343\274\247\323\250\274\335X\005<;{_\273\320\265\273\275\314#\255=\314\363\314=\r\"\030\274\352w\250\275\347B\203=L\351\252\2728\316\232\275\323h\026<\375\222\350\275\304|N<\251\373\243=\035\236\346;m,\020\274Km-;S%\233\275\220\007\252=\324\266\353<5\2662=\210\366:=\032KP=\305 \311\274\243\314\367\274\334\256\340\275\004\376\023=t\372\252=\277\217\225=\247 \275\274j\\\301;\3368\205=\222\201\222\275\352~6\274\3460\373\275\276\002_\275\312S1\275\210\3366=\036(c=\033\177\377<\330\204{;\202,u=\2441\301;\365\r\246\275\306\336\322=\352VS<\023\344\216\275\373\027J=\204\313\356\274d5P\275D\242v\275s4\311=Z\217\307=\205\246\276=\347\215\214\275\214\356\240=\002\226\036>\276\207\247=\237\250\223\275=\215;\275\203\322\031\275\035\367$<k\315\375=\036\037\305<5\266\220\274P\376\305\275\230W\226\275g\376:\275>>+=\251\375v\273~N\335:\336\226\367\273N\225x=\026h\n>\357)\244\274\232,\245\274\351\213F<\245c\222<M\004\034\275\276\276\206\275\201\272\265\275T\264\211=]\006\n=\230.\021<\0302\014\2751\207\307\274a\224\256=6H\36791\374(=W\326Z\274n\342\220\274r\260\376\274>Q}\275\212\031A=\240\306P\275\267^#=\371\235\274<d\262\262\273\030/&<\370\'\002\275X\241\232\274[\375\332\275vU\303=\363\374H\274\361#6=z!\235\274l\025\210\274\350A+\275W\317\004<N\322\033\275\306+\333\274\177\230\270\275\364+L\275\373-\334\275\3033\205=~\315\014=*`\341\275\312yO<\240\200Z\2752\214\366<\210\200\256\275\225\376\226<2H\020;\335\302\254=I\010^;\334B\366=\212\317\303\275\014O/=<B\333\275\\\270\265\275\356Z\363\274\340\245\251=\236\371\t=\343IO=\371\0209=\235\326\200\275h\327\253\275\236\035\322=j\3262\274T\320\261<\"r\213=J\311\204\275zx\005\271\355`\277=\026\257\"\275\020\341H\275\036=\'\274\355\354\210<\251\213\311<\272Y\257\275@\t0>X#\326\274\t\214\351=\024\332\251=]W\377;\014\371\237;f%\335\274\'\"\225\274\"\373\330\275\216\032A\275\271X~\275\034\245V>\336}\000\274Z\214q=\314\355\230\275Qh\212<\016+\364\273\230j\231=\021\333\360\272F\304\206<R\010\207=\t\266\301\275\321\037\362\275TzC=\204b\177\275\375\366&<iY\261<\335\006?\275\274-\366\274\254\243-=\346\311\204\275H\272\354\2743\025\315;\324\232\004=\255[\r>P\253\206\275P\305\222==sy\273E\307\252\274\024\0335\275\326\016P=\207\004$=\010%0\276\261\026\332;\201>\267<\"\016e\2757\334\275<\332~8\275L\272\316\274]3\225=\253\325\024\275\217#\340\275Y\022n=x\235\300=\346\302\321;\320\231Q=]&\371=\340t\207\274\323>\007>\330\207\013>Q\026\207=\207\322\356<\370\217\277\2754\020q={\345\374\275EL\371<\016l\247=\215Dv=&9\205\274\326\276@=\260\316\244<S\006\264\275G\230\252\275\022\311\251\275\316\241\314\274j\014K=\177,\225\2758#\002=\224\030A\275/s6=\222V\373=W\352\257=\013u\256\274 \026i\275\270>@=\216\004\217\275\206\241\247\275{\340\206\274\254\025\023<\000\352\000=_3\243<\340Q\221<\023\373\204;\360+\027\275\001A]\275Y\377\"\275\2540\230\275\342T\007\275\271\271 ;\272\343Y\274\022)\374<I\306\324<Ec\202=\327\253L\275\317\254\241=b\303\362=\206\223\305\273+\237\271<u\333,>\243\326\335\274$\211H=\224\255\016=\305\376\245;\033AB=>\202E=\355l\370<Y\263;=\260G\256<)\272]>\235vH=\324\002\030\275\370\034\236\275\377\333I\275\240\212\235=\373\3111\275\326\212\237\273\247\273-\273\323eB\275\032Q\244\274\360O\336=\\Z\003>\033\202\264\275\344\240\316:\231 \'=\266\201\020=\244\002\335;Pp\210;T\351\307<\231\013\225\275k\344\277;\004\264\005=\276\016\003\2734!\243\275\254\026/\275\247x%\275\262\240\331;\365\205\260;fUg=}p\235=NO\326<\213\033`\275\013\325R<m\214\263=n\240\217\275F\243\305=\327s\221\275j4\224<\373\031\253=\330<}\274\250|\202\273\307\030\023\2752\356\315=%|\202\275\236j\270=<\266\254=\tu\301\275I\305\027\276n\177\314=(\031\210\274l\275\000\275\245\014\356;\374/\233\275\373]\206\2747\324\252\273\272O\n=\251\276\t\276\362\220\334\275\211\342\344<\232\206\002\275d\247!\276Wc\372\274\224D\314\274\372\363\020=z/\362\275\003\352!=a\346\274\275\233y\027\275\347\t\230<\201D\025=\333\366\213:#\206\211<\335\252\016\2761\253\026=tj\214=\201\"2=\031\020K\272\355K\240=\31637\274I\030\344;\224\211\222=\310\344\263=\250\240r\275E.\230=^\325^\275.\035_=|\273L\275n\267\340\275\025m\246=D\253\206=\321\263\335=-QC<\27176\275]\304\205\274\222\336|=\231Z\014\275y\330\014\276\033.>\274\346\222\364\275\307w\203=1\304\226\275\031\351 \275\021O\026=\202\213\243\275\271\337V\275\250~\\<%2I\275e@ =\215A?=\216QW=\251\026\250;\346\325\335\274H.\240=it\207\275\'\340Q;\232\315\265;6\036|=h\302\232\275\273\020\237\275\337\036\376=&[\006=\234`\034=\246\311\270=\277g\327<\330\232\355\275.HM\275\013,7\275\210\037G<\323\222\027\275\263\025P=Tr\206=\2261\273=\367\371\210;nX\345<\363\301(<\"\230\010=\311\206C;\033,*=\367v5\273\027\207v\274\357\322\006<\255\310\222<\306==<\247\232\013=\333<\227<3\032\214<\032\322Z<\341yR\275\220\202-=\203\276R\275L\244\206=9\345\254=[V\031>\364R\367<\205h\031\275\271\220%=HS\205<\3415\202\274\363X\311\274\263\'\240=\026\311h\275\310 \000\274h\027B\273\032\365\262=^t\\\275h\222\305\274\316K\374\275\221Z\242=EXR=0\002S\275\212\363\316=\217\233y=\305W\237\275\317n\227\274{t\232\275\350\334\366\274\240-D<\311N\366<\363c\377;vC\354\273\342\322W\274\273\364*\274\000\025_<fIi\275\373\227\024\2755\213\353\274\320\305\371<\2302\177\275\001\345y\274(c\020\275\346W6<\345\r\210\2758rH\274)\035W\275\327\307\350<\343C\210\275\237\033\021=\216\267\177\275\\\365\366<\r\001X\275\357\r\256=\0017Q<\257\372\t>\240\021\204\274\365*D=U\266\306<\212\232\226\274?\241;=\315\362\206\275\250\006\212=\3262\341\274\246N\023\275?\205\202\275f.O=\370\266\004=50\377= q\037\276S@\261\274\010\2353=b\002\376\275\367\247f=\356\246\351\274,\344\245=6\301\205\275c\314\321\272\"\245\013=Ic\204\275d\235\003\275&\245\242<\002y\243\274^\236Y=\351\3055\2749\327%\275]\236\004\275\232k\242=\032\322\010\276\005\210\252\275\347\360\235<\210\033\014\276\331\360\300:\227&\252=\303\'\017;\266\250\226=o\030\"=!\265L=\034\235\030>\264F\005\275\3126\222;\277\nR;]\311p<8\215\365;\036\370\360=q\335N\275\361\315!\275\201\326\312\273\025\001\264=\243,\207<\024\341\254\275p\336\204\274>\373\267\274\333\177\363\275\233\366\251<\263\024\215\275\240\212\316<\321`X\275*\022\251<\240\267\006=4b\357<\026S\325=\374\352d=\205\3208\275\267\024*>\216\371z\275\251f\266\274\356\237\276<\262G\274=\347\027\220\274\3001x\275\3116\307\273h`\300=\212\"\356\274\027\324o\275t4\247\275[\346\244=\025\314\303;\240\233z=n\003]\274\023\241\274=\215\023\245\275\302\237\313\274vw)\275e\370\312:\354\271&=l\222\201\275\2210\240\2748\202r\275W\354\335<v\274O\275\033Z\220=*\303\007=x\276\316\2737\024\223\274\007\254~\275\204\341\225\275vF\221\275h\004\205\2755\235\\=`\362\';Y\311\200<;\251#\275\323X\324\274\240B\225=\201\351\025\274\010\030\216\275\261\305\302=A\020\252\275\333\317^\275\217\274#><\253\010\275\243[\307\273\0176w=u\220J\275\000VF=q\311\316\275\346O$\276ZKg\273\022\217\344=%\363\314\275\266\232\255=\237da\275\214\263\026\275\267t\255<\255@\206<\361\347\213\274\310~\220=\350\313\364<\020.p=\312E`\275o_\212\275pGo=\2742H\273\214\364\311=;YH\275Fz><\321\371!\275\001\r\234<n\036\315=\240\013h\274\t\373\371=\353\377\300\275O\341\\=\312\341\014=-\272\000\274\000\361\205=*\0143<\256f\373\274w3U=pu\232\275\257\263\020=E,3=C\260_=\3259\233=89\275=DT\232\275\252\237\267\273\271*\331\275g\355U;J\333\365< 0\226=i\n\337=\026v =\320\207\001\275\020\347#\275\336\207\033\274[b\230:\322\345\235\274\333\222\256\275 \305[\2745O\244=v\177\301=\021\263_\275t\004\200=\006\300\\<?\271n=\233\354\250=K\301\323\275\320)\203\275TR\234=\312\206v\275tJL=\325qH\273\341\273$=\211\201\303\275\357\257`\274\033\371\025\275\253\271?\275\347\004\004>1\207\256\273\271\371\304<\004dO\275z\243\334\273o\277\027\275\225\\O=\315(\024\275\236\223\306=\331h\034\275&\001\025=\377\200\246\275\204xN<\333k\220\273\342\311\301\273ac\320\275q#\315\275z\032\364<U\375\303<x~\205<\\\033\260=#a[\2757\001A=\346\246\202\275\033t\327\272Z\251\023\275\223\322\023=\360\362f<\207\332\035<a\211\377\274\363\037\244\274\343m{\275\325\005\226\275x\224\342=\030\326\324<\024\243\250=:\315V\275\220\340\324=\275\354\331<\341M\303<\251\311\301\274\027\3709>\2410\226\274\320\257\261=\212?(;\'\374\242\273\376\362x=\346\374\372\273kv@=\021\256\002\275\211\314\215\275\253\010\305\274\304K2\274\272\n\335<\274\277b\275z\250\363=\324\235\225\275\273^!\275\314\005\200\274~\322\207=\242\255\310=#\270\302\275\241U\r=\266\303\005\275\266\021\251<\320t\205\275\232\247\227<)\3325\276.\240\204;\337\367\226\275\304p\001\276\247\004\311<\004\230\264<\366\034\276=\334/%\276\321+S\274\262ke\275\225\200\374=\240\2267\273\377b\034<@\343\307\274\310\237\264\274D\032W\275\263\365\213\274\0018\006=\310qm<\233\213\346=\205\216\325\273[\365\305\275c\027\251\273\334\335\352\272Z\321\231=\371\361\337\275:\322\262\273\257==\274h\212F=\010\223k\275\376\321E\275\316\024m\275\316\374J=\274\364)\274\241\021\256\275\207\032V=@\353\014\275{\340\006\275(\331\210\2749\244H\2758\024\214=\255\377\201\275k\311\302\274\350\330\221\274n9\034\275\3230\201=u\030\021=\213 \031\273\325Ye=q\225p=3\r\232=\205\320\371=\245\004\'>\243\317\227\275\265L\213\270\230\331\242<\350\037\232=\014d\232=\240\027\027=\264\201\007<\340F;<\354\342\203=\274\226\000=\"\365)\274\302d\010=\366^q=\2009\004>6m(\274\314\361b=\250k\231<\212\252\303\275I\330\n=S\204\336<$\310\374=^\260\002=wM\034\275\014\312p<J\207\264=\342?\200\275\330\\%\276\322X\255\275\006d\203=\270\372\350\274x\003\206\275\275$_\274\223\333\241=I\255\367\274\343\3072=\3242\001<\316\2501\275cv\016\275\t-\201\275\034\306\353\274\341\024\210;>\336O\275B\261\025\2732\223\306\274\240q\271<\3509\257\275g\320~\275\343\025\241=RX!=\337$6\275\216s\324:\027\315\326\274\236G\306\274\221r\303=\013\3419={\333v=l\303C<_\3766=\360\2109\275\303\262\275\275\362`\205\272\360\253\204;1\352\310<\277$\013\275$\302\031\275\320X\226=\340\363\262\275K\226\214;\322B\220\275\204\367[<\346\312\017=\307&O=\227\224\242=5r\316\274\342\014x=\356\360k=\2671\001\275\242#\276;$P<\274\0160\233\275\234\206\t=\352@m\275\357\361\002\276H!\254\275\361E\205\274 Y\346\275\r\223\354\274|\035J=\301\252\301<v\334\353<\315`3=V\367\033=\001\262\204\275r\347i\275\330\024\207=LEk\273\277\243\014\275\014\275\263<\331\2272=p\225\365<\326?S=\211\363\020;//=\275\200w6=\021eU\274=\201+\274q^O\276\002^&\275\\\360\361=6\216\362\275\215\207\345;\362\237C\275\370\212\r\275+1&>\237\301\250<\242\036\314\274\334xE\274\017Y^\275\350\355\225<=\311B=\"C\213=\274q\275\274\366\376\301\275\007\350@\274\225.\204\273\274\202\316\275\336\275\352\275=\374K=h\306\030\272\002\360K\275\353\364/\274>\223\223=\305Z\r<[\006x\2752}\315<\264\242L\275W\245R=\377@\276<\203f\263\274\270@\244\275c\313\005\274j\306\013\276\233\357@\274\317;\370\275\352\270\016=\024\360!\275\237\276\233<u\255U=\242\316\201<V\r\247\275\243\021U\275`\020\233\271\272\366\033=\335\2672=\032\217{:\273\3713=r\342\000=\006\352\256\275\\\236\265=p\013\361<\373\373W\275\327G{\275\205\301\037=[\363e=>\'\016\275E*\304\274\3039j<\263\321\004\2762\nK\275\037W,\276\004\342V=\373\312\346\273c\005\201\274\360#\243\274\273BR=b\346\014<\307(\261=\306$>\275\250\221\202=\232\326\274=\252*?;\355?\244\275\276\032V\274\372\034\227<\377\233\200\275\320T\334=\336+\003>\302\202\003=m%\n\274\333\310B=\025\r\233\275\274I\016\273\217\323p=\265v\027\275\r\252\243<,\033\022\276\243\374\031=\376\251h\275\243r\250=\215\0261\275\312S\323<\035jm=\272\240\345\273\262\252\013\276\017;x\274\265)\323\274%\003\326;\326\253\220\274U\302\376\275\036\222\276\275\233Z\177=\013\277P=\365\224,=\311?\245\275\246\240\023=\341H\332<\276b.</\237\031=\341\350\017\276\262\'\036<\034\236\276\274#\247\273;w\332\202\275\376[\274<\3061G\274\260\021\362=(\316%>FNv=\nf\243<\023\327R\275j\205\352\275M\355\010\275E|H=>b\223<\251\240\222\275\262\031\013\2754>\355<\256 \244=\"u\375\2747\251\213=id\271=8\002_:\004\321\025\275ox\315=f\227\030\274\233\016K<\264\037\264\275\267\323\222\2757M,=\276\265A=\"e\244\273w\370\206\275\325#\233=\034\017\326\274b\020\013\275<\333y=c\241A\275$\230;\274\252\333\204<cM\230<\216q\264\275\027\031\326=r\031\300\274\3015\030\275W;\270=\003\341\271\273\270_A\273k\344\250\2752\244\202<^\033~\274\202JZ=Y\330n=\266\275\221\275&\272\316\274e\343\312\274\217\214P=\n \316=\247\017\216<\226\274\310=\202\253\t=P\215\355=UTc;\212Im\273\335^F=\362\312Z=\263\230\217\275\301\013\240\275\356i\337\274\325\204\222<\247\367C<\030<\323=\302\330/\275\270yy<\210MK<\006\240\020=\030\nc\275\233K\250\275\020\014\r;c\333\016<\235\371\006>\242\037\206\274^\003q=\346\337\335=\316\374\273\274\336.~<j1\264=\320y\201<\246\250\327\272uP\200\275\237\343\230\275\010M#\274\311\320\255\274\324K\200\275\262^T\274DM\267\274\370\0229\275Q \345\275#\304\265\275C\334\214=\177\021\217\275\227\0262=\335\356[\274\310Q\300\273X\004-<\266\214\017>F\037\373\274\222\256h=\336R\221\275dz}<6\352\372\274H#\n\275\346B\357\274\342W5=w7P\275\236\222C\274\342\021I\275gi]=\005\303\245={2~\2754\242\236\274kw\331\275\3627\251\275\373\275\007=TV\207<\340 \234\274hZ\206<n}\036\274,\317\316;i\370\270\275<c\212\275oZd\275\321\032\005\274\334\026\216=\247\300\303<\014\231\020=\332X\362\274\210{,\275z`\031\276(\242,\275\npF=\014Mx=9\177\313\275\031\226\303;\'[\376\271\010\320\021\275SEP\275\355\267\010=\217\350\350\274<4\034=\2240h;\035\320\311\275\270o\000\274\'b\233\275\371\252\001=\310\020\315\275\265\322\224=9%\261\275)q\206=FO\023\275\t<o<\316\364\361;iE\370=\037@\270\2748\216%\275\235e\005=h\331\034<t\322L=\240\335e\274\313>\233=\022\311\344<\026H\321\275A\211\335=6\333\005=wr\002\275v\006_\275\256\356\260=\364\340\204=W\357\030=\240\335\305\275\n;\330\2755\352r=\005\275\215<$\224\343\275R5\232\274a\256 =L3\315\275b\204\214=hz5\275s\365]\275p\256\333\275\275Z\342=\256\022\021\275\244\254M=Un\235;l\006\016\276\375_X\275\250\227\260\275Tqw\275rno=\375\266\347\275\014\300\375\273\275H\307\273\235Y\021\275\323\207M<\203;)=\355\360\025\275\214\275X\276\330\020d\275\217\362Y\275\366\007\032\276v\245;\275\203\375\021\275\230>\317;B\\\270\274\261[\230<\240\375\014=g\276X\275\030\230\261\275\252\'\254\274E\260|<\367\252\025=\201\302\036\274\374\221J=\304\257\303\275\3549\216\275\033\204\000\275j\330\260=\235z>=%\307\247\271H\2555<\306sl<\"\222y<$\007E\275|\2745=\276\036-=\222I\266\275Y\227N=\232\355\344\274I\330K\275\276[y=\002\267\300<\232\203\213\274\257\351\314\275X\211\332\275V\332\024=\305r1\274~\026\240<\220\003\215\275\006&\272=j\235<\275\247%n</\372\206=L\276m\274u\r\214=\240~#\275\375x3=\237\362\326=T\215\316\273\016\'\017>op\276\275R.\027=*\340N<;T\033\275\316I\020=\304P9\275\006\302\343\274\357\323\037=\334#\302\275\214\2300\275\212x\332=\230\360\204<\005\262/=\'Bd=g\356N<q}X\275\037*\007>B\3343=\256\235\200\275\356\356\340\274$\324\266=\007XP\275v\320\300<\2705\"\275a\224\225\275\n\256\021\274\021+<=\217\232\030\275\251L;\275/q\326\2759\307\354<\251\261\024\276\2440`\274\255/\005<\014\231\361<[?\204;cb\222=\356\260\240=\203H\230<\320p:\275;\343?\275\023\231\022\274[\373J<\377\020\242=R\314\247\274\007c4=2T\227=\274\345\017\275\305#\344=v\224\220\275\260[\236<HrI=\313\2359=\332\\\206<\257a\314\275\271\205+\275\331\354\254<-\377m=\212_\016;%\251\267\275?0\235\275\274\346\352\275(\335\210\273Z\256j=8K\276\274\241\374\031\274\212V\235\274~\211+\275\364\363:\275\301\334\233\275e\205\013\275\373\3673\275\017\005H<\212\034\224=\311\255\031\275c\177\344\273%z\222=\364\017d=_R\273\275\010 \237\274\311\276K\274\252\343\\\275\031\r\032=\345\373\230\275\322\031w\274\022_\030\276pn\345\275\225\251\205\275\206\236\r\276\307I#=\344\355\031;l\302\002>\013\316\010\275\353b\361<\255C\277=5!\331\274\253L\364\275\341\230\256\2752\251C=\033\344\254\275\037->=me\037>o\275\203=\"\213\256<\3377\204<\300\233\346\275\0338!\275c\2662=\r\377\224=\"g6=\341\305r\2750\255\322\275\264:\217<r\255\217<\307%s=\221.\353\272d)\006>C\333w=o\005\327<\002\010\t\274\237D\000\274*v!>\236\005\336\275\005\355\315<f\000V\275\263j9\275%\3142\275!\315q\275\\\347\357=\306\027\t\2741\244\312<cv\036=x\2442\275kj\335=\n\263N=\205I\221<\355\317\373\274W\351\020=s\250,\273\002\376\006\275!\036\026=\261\225z\275k\017n\273i\023\001\275\'},\273\320K\277<\250\201\354\275w\r\230<4\035\326\273\316+\247=x]\034=\376\'Z=\033cR\274>z\243=\177{\253\275\265`\255\274\201\034\275\274u\226`\275\306?\211=zk\224\273\364\022\034=\022T*\275tV8\275J\3232\275Iz\030=\251\3418\275\'\202}=Y\262\306\275A\030\341\275<\375\265\275lF\002=U>N=O\251\002\275J\352\251\272\355\302\271<G\341\233=\306\023\220=q\017q\275\035\260\013\275\223\315\266=\347\224\274<\330J\006=\273VA=Yn\255\273\256`A\275\010\356\233\275<\021\002\276%U\266<\375\240\262\275\225\207\021<\260\333\353\274\177\250\034\274\310\365\371\275\352\216\303=\347\034\276\275\365\222\304\274B>+\274W\305\033=\352\254\325=\216\2465\275\rG\336<\356\217\2279p2\343\275\206\276\027\274;!\221\274\247\003N=\204\206i\275\310\333Y=\334\255\273=Z\252\331=\326\345\022\276\026\037^\275f\326S=\342\313\224\275\222\030\215=\033/5=\260\027f=\247\242_\274\342X\372\274^m\306=\312\201\350\274\205\233\221=\222\365A\272\275L\246\275\013\302H\275\2649\312\275*y#\272\220\276\261\275\374\225x\275\325\234\206\275\242%&\275\013\037<\275\370H#=R\340F=\222\006d\275\\L\327=K\211u<\036\032\033=K@\265<H\016&=\313*)<\323m\307\274\022\373c=\226\010\236<\003*\247\275\303L\030\276\260\271=\275\354j?=\323/\003=\266v@\275\260h\242=\207\006\345\274Z\252\355\273sL\'\275/\220\352<\360\003\253=\0004U\275\316\352\252=n[\277=\017T\244<\215\232\241\275Yq7=h\254\251\275q\257\n\276~\210\213\275z\025\211\273\267PI;d\025\377\274\n\034\310\275\003n\250\275\306av\275\224\223\257\273+\237\037>\323\364<\275\327\024\300\273\350=3\275|\013Y\273\324|\224\274\227\344\244<\341\347\230=\3050\376;\'L\207\275\007\223\310=#\005\224=\256>g<\337\301\217\275\271`\224\275 \327\017\275\3538\220\275\365\225a\275\277K\024=9\263M\275\267\332\315=S\001u\274\3255[\2755\221\257\275\254\3459\2753\273Q<e\2546=\362\346\200=\271B\336\274x\335\333<R\262+\274\021\355n=Z\226\201\274\337\301\213=j\024\356\275\276\034\267:s\342\337\275\217S(\275\227\210\351=?\3543\275\316\221\376=9\351\200\275H\357\013\275\001\000\001\274wh\20075]\356=e\177\236\275\364\213\030=r\202P=\323\006_\275\366_\232=\021\225\214=\262\241{=\231\243\232\275+\336\323\275#\362\347\275*\301\223=\206B}\274{\255\203\275\330t^\275\")\034;\r=\'\2749\316\265\275^2U\275\006\253\345<hjK\273\231\341\351<\257\265\234\275`\314\204:G\322_=\314\331\261\275\363m\2729\350\223\001\276\300$\364<\310{\222\275\341\333\217\274\\P\204;\020su\274\335\325\341;\241x\372<w\315\305\274+\'\212\275\244\263 \275\354\236d\275)%\364<rhS=k`\320<i\324\265\271B%\224\274%\002.>\001:\346<h\003\355\274zL\254<\305g\370\274\357\305\215\275\303\027E\274\212\352\025\275m%B<\\\024\201=\027W\361<\304\016\357\274\007=\"=\022\352P=\267U-\273\303\343\312\275\342X!=!\275\315=o\023\250\275\376\375\0059\373\252c\273h\013\344\274|\006E=$\223\n=~\254\375\274\r\240\235\275\327\000\031\276\235\317\267<Qe%\275\221\271\374;\210\010D\276/\355\005\273^\274\275;i\361\277=V%\210\275\r\000\223\2754\027\207=\2672g=\251=\202=\362gs\275\222,3=\214\230M=l\343\035\275\020\004\207=oz+\276\207yY\275\366\001\270=\350\000\352=s\267\263\275\202\204\327;F\306B<\026\221:=~\305\346=\r\320\t\273\266\324\310\273\321=\336\275\263\004\203=\005I\304\275!\260\206=}\025\323<(vF\275\264Z\277<\322\355\306\275\306O\327\274\201]a\275\"?\025=`2+\275\005p\002\275\3070\036\275-W`\275\343i~9SC\212:\331\237\004\274\204\206?\274]X\217=\002Y\216\275\341\033y=\023r\027=\226~\203<\2576\257\2758\326\263=\2303\234=\215c\020<\252S\232<&LP=\343\351\013=\304\343\024\275\001\317\'=`\177x\274\262\343 >\227m$=\354w?=\340\006v=\017\222\001=\220a\305\274F\027\220=2\375\225=\240e\322;U\3378=\006.\216\275*\322\240\274\006\202\022\275\264\264\207=\244\327\002\274\364D@\275\220\207\2219\034\032\360\275=2s\275\321k\036\2755\352\234=4)s\274\001\213o\274\256\305&\276y_\231\274_\n\346\273\n\361\314\274\020\033\235<\370\350\230=\370\360\030=\215\212\316\275\0375\214=\263\370\257<\375\347\007>\244\033c=(a\024\2755\340\227:\255p\355<\341\233\004\275r\025\204\275\330\374\226\274\220Dt\275\326SQ\272\272Q\005>9`\027>fL\243=\033TC\275\217%\250=\221\315y\274\361K\\=\236\310\002\276\357l\001\276\345*\236\275\013,\223\274\036\356!=I S\274 C\262\275\250\365W=g1\010=T\232\240\273GW\356<\365I\376\275/5;\275\n8 \275\242:X=\276@\251=\020G9=\320\342\232\274\365\305\017\275\330i\224<\300\000\372:\377%M;<\233\217\275\247E\222<\207\206\244<\221Y\265\275\323\312\215\275\322>j\274\336\341\277<\341\211\201:y\n\"\274\300\007@=\336\307\002=IQ\n;S\237#<\322\230\013\275=\207\"\275\336\237\301=\030\267\315=\211\031\250\273\324]\366<{\026t\275F\200\225=\225\266\321=\247\014}=ST\321=\n&\r<\244RO=\202\0301\2753uH<\3344\033\274o\203\200=\204\301\020\275w\006\244=\254\034\226\275\247\357\231\274>\203^=\322|=>\016\025\345\274a\2308\275\230\245\352\275\227\241y;@\240\271\272-\256C\275\265k\005\276&\311G\275soM=\'N\330\274\270\345\n\275\2118{=\207\261\302\274\236\026%\275\207\301\t=\341\031\347\274|[\300\275~f\327=\213p\223<\376\016,\275G<\220\275\031\370~\274\230\323\034\275\031-\256\275\352f\275=(H\260\275\275\260P<J[\372<]\017E\275\2171\023\275\013J\213\275\301.I\274\273\371K\273l\326\035\274\274\353\311<2+\334<\256\345|\273R\rK=\231\026d<\352~\n\275-#\362\275\235\370\005\276fr=\275\317\316\266<\254}\242=xg\333\275\346a\n\275\275\374\316\275\274@\317\274\"\313\316\274\0231\006>t\350\203;F\214\301;@\2346\275\375\377\300\274\030\330N\275\370\367\303\275\204\333k\273\0062/\275f\007M\275\230\2576\274J#\215=\221$\306<d\332\374\275\370\211\305=\327\323\005\276r\272\202;!`\301=&\230$\275\n%\233\275x\2613=X\234\215<#L\313<s\267\212<\346\227\246\273%:\301=\375\'a\275\334=\237\274l\243\000\2755C\336\271}\r\361=Wu\006=\337\210\345=\310\355\234\274\313\377\204<\206\277\200=\202\000\217\275\356H.\275B\225s<\263\363\007=^z\225\274\265\021\274=\225\245y\275\267t\017\275\230\205\363\275\n\357\247=m\014\030=V\331\374\274\363\177\037\275\260\250\265\273\350H\005\275\370\236P\273\020\244>=\007\345\341\275\255\354\204=\314*\320:_\232|\275\224\014l<\241\256\206=M\266(\275\320M\026=G\0370\275B*\200\275\231:\'\2755\363\357\274\355\366\270\275\224\346\035=\264\371\351\274\234\225\215\275\230\017c<#\177\245=\213K\343\274\344\223\231\273\032\213\356\275b3\034\275,\027\021\276j\234&=x\243-\275jYy\2755\004O\275\350FA\274m\332\274<!\272\204\275\2430L\275\355T\253=\013\006-<-\315k:E?\367\273 E\211=\007N\017\276\000\315~\275\010@^=\202\376\315<NA\260\275z\313\226\274T&\'=\230:%=\t\2177\274\317\027\226\275>\331\312=D\017\311=N\3744<\375\016\377<-\264\310\275c\3176;\214\374\"</>U=\317\010!\276\304\352\340<\326s\214=\"\013\016>\211\355\245=tl\021\275\3540n\2752\246!=(\276\023\275\327\303c:\222M\337\271\177\327r\275\025\021\243:8=\014\275\346\216\004\276aY\263\272\364s\332\274\365\031:\275T\310\233\274c\316\007<\024~]\275\265\261\t\275#\365v<\203kx\274\034\322V\275Z\212\307<2\343\035=\031\304\324<*3\352<\321\325\373=\234\361y=\270\227\023<}f\2439\216-\355\273\221C%<\330\'\016=\330U\335\275aDO\275\303\322\341\275\302&c\274c\231\354\274o\3601\275\254\213F=\036m\024\275y\2275\275\352\014\236; \205B\275+\361\354\275\253S\271\275w!\376=}\265\203<\360\361/=\221\335\251;.}\205<K)\263\274d1\225\274\352\364\244=\"\033c<\270\340\"=\242\320\240=\013\352/\275\325%\356\275\006!\240\275\275\023Y=f\230\301<\232\231\356<\246\014\326;\235\303\324\273\245{m\275-\227\203<N\r\204=\234\307\277\273\354\354\271\275\331\tx\275h\350\247\275-X.>O\177\213;\225T<\274\315h5\274\347\365\245\275\006\347\314\275\375\323Z\274\0375U\274f!=<5r+=\254\245\244=DX\241=&W?\275P\227\n>\303r=\275\347\253\305\275\010\033:\274\304\274\216\274\\~\217;\243\267\307<Ub\223<\331f\352\275:\032\213<\216\023\035=\365F\240<\2649B=^\373\275\275\001@\354;\246\330@=\203\n\270\274D~J\275!g\304<\274\177\026>W\022B=pP\224\275\212\354\340\275r\010\212\274\317\024\'\273(D\205\275\273\246\340;\307\316\306=\336&\214\272\303\203\314\274\362rV\273\314\352\233\275\337p\036\275\353\275x\275\352\302\273=V\335\n\275\177\367\245=4K\272\274S\253\302<\234\230\312=\'\324Q\275\321k\021\275\000\341v\275\325\362\240\275\007\311\270\275\312\303\337<\0161\344<|e\260\275\346W\202\275\274\030\030\275\206\305\203;\371\2137\275G\275\216\273[3d=\200o\231\274\336C\347\274\271\222\226\274\211\035\000<\247\355M=\214\252\211\275\'\023\345=\345\217\023>)\200\313\275\227\251>\274\223\216\201=\322\243L\275\375\021\223<\027C\002<B\245\017\275\315\202\233\274\3029\306;\233\205-\275O\344\352=\037#\000\275\016\245\241<*\321F=/\030\311\274Dw\276\275+\035\345\275\020\235\276=*\274\245=\'[\364\2754o\002\275\300\"\252<\013\200\360\273\256\351x=\021(\325<\312a4\274\204\035\237\273t\266\314=\232\004>\274\362\177\257\274_h\025\275\200|\217\275?8\370\274u\253o\275\311\033\023\275l\315\304<\302\253\206\273Y\240\210;\263\335\\\275\334\323\256\274r\324\275<\232A\373<{\036\230\274\370\r\335=/\326\205=\027Z\'=\r&\304\275\200\367\002\276\342p==\2255i\275\264\311\264\275\342\230\234\275u\241\023=\225+\310\273\0271\347\273\275+\027\275\223\300\377\273\0362\227=D\224)=P\322\372=\240:/\273\201\206^=\244\226\025\275f\245X\2759\2054=\037\377O=\251\230l=\240[Y\274\344(\205=\235\031\024>\'\201\250;K\250O;\226\351\264\275\'V\225\274\315B=\275 \016\203<\200\005\022\276\036C\212;\206\t\344\275H#\254\275\211\r\003\275\302\244\270\275j\336\221=\327\230\201\2743M\374<$\353\020=O\370+\275\304\353\n\276\260\t\000>\215\272\024\276\t?\343\275\034t\314\274\350\336\030\275\207\201]<0 \352<\214\237-\275\025\031\353<\246\202\247\275|F\024\274\220\320\361\274\260/N\275\336t\375=N\342\024=\257\342\204\275EP\245\275*\330<<\000\262\315=s@\342=\353\302v=`X\367\273&9)=Mq\017<\t;\006=\216\032\026\275q\351\233\275\337\366\003\27653\216\2751\201\244<\227}]=x\035\220=\026\373r<$\244Q\275u~\370=q\360\215=\225/\204\275\255iI\274\026&#=\246\341V\275\357i\324\275\371\221\220=T\377\213\275#\340v;\335L\211\275A\034.=-+[<\325y\336\274\217=`=k\363\375\275P\035\217\275\323-\031=A)f\275\244\354@<n\007\327<\344|Y=\345M\222\275\253\034\333;\336\361\265=\366\244\005=!P\340\2747q\'\275\261pX=y\262P\275\3066*\275nn\206=\016\217\253\274\263\033^=K\222\314=\026\020\363\275\277\203U\275b\202\r>\007\020j<\215\020Y<%\010g;p\342\362\275Y\231\032>\323\314\253\275\300w\027\274 \200\277\273\360\214\335;;\303\230=\236\233\300:\322y\240=\253\373\357=\260M\330\273\357\335\003\274i\234|\273W\341`=\370\351\373\274\222..\275\033\221\352\273Dth=W\035:;\013\216\203\275A\207\014=\345\211\232<\356D\013\275!\333\351\275\013;F=\267C\020<ot\332<Y\001\004\275\026`\000>\014I8\275\310\223\310\274\010L$\274q\224\212\274\270\201\243\274\221\026\\\273\246v\"=$\210.\275\356\002\233<_\004\260;k\325\350=\376\361\237=\315g\231<US\243<\330q\253=\365\343\307\274%\364\373\275\353\367\221=/Q\247<3\215F\274\353\022\257=\3332C\274\214\356c<\325B\272\274\"@\352\275\203\362\266\275\003\024\210=q\332\251\275\177G\n=&\202\322=\347\254\201\275\003b\370\273\271\303`\275\336\304\001=\032\305\3339\315\260/=\235V\206;\002\352\021;\361T\253<\014\226$=\2406\370<\017L\247\275k\270\010<\273N\241=\002\2564\275+iJ=\254T\255\275\200[\257\2752Q\215\274\271`.\275\267Q4=]A\325<\322v\317=\001\032\022;dj\014=\203\234\203=\326\314p=\366\211\240<g\241\177=\032\217\220\275x\330\327\274\272\215\235<\311\231G\276\370|\350\274\020%\020<.\217\221<:#\261\274\357\326\\;\226y\307\275\356ld\275\035RJ\275\311\261\265<\200Y\312<-\344\362\273\262\033)\275\265\211\222=\303\0134\274F\236\216<S\250\317\2752\263\342=\327fA\275H9K\275V\211\264\2758\365\331\275\277p\371\274\020{O\275k\322;<\207\"\021<\3206->\304\020X\275\301w(\274\033+g<\323\335\253\274\001Y\000>\024JO\275(\276\251\274^\276\267\274\3464\315=\372\tG\273\366\365e=\321\n\010<\225\306\006\275\363\001\026\276^\177\374\275\317d\310\274?\360{\274\237\036\251<Q\375\311\275\325\034e\275%\236\275;\271\231\324\275\350@+=\217\264\311<^\315\261=.#\002\275\260\202\254;R\345\217=\203L\204=\217V\203<U\242\302=\357\370-\273\365\231\265<\325\200\377\274i\262H=@\000\265\2730#\253=+\315\237\273\346\254\250<\207\276\311=o]H=\214\305\263\275\255c\241=\277}K\274\370{E=\306&t=\3608\342\274\365\200\235=\311\330\030\275\256\226`\275\032\225\214=%L?=\033k\206<y\3757=\245\035\210\274:(\000\276\361\331\215=E\226\006\276\232\247\024\275Qv>\275\375G\020\275>h\007=\266D\214\275\230\223\366=o\307\010<F\025\240=v\260\347<V\236%=+&\006\276\302/\205=\246\037\236<V\022\035\275\315,L\273\262+\243<\3362\350=\231\374\221<=h\351=\2466\267\275J\236\004=\306\002\256\273\2764\224\275\032\215\036\275\244\321\035=p\003\366<w\023\312<\003^.<\322\230\333=\211B\237\275\303\0069\273\372\304 =#\224x\274\272\201>=\341\215\236;\205\302\374=G\177M\274\345\242\365\275S\030\220=_\307\207\275X\031\265\275\222\250\336\275\226\326\201=0\024\352<b\212K=\322\'\261\275\327\033);\250\274\345=\345-\262<\253`\247=\271^Q<\232\344J\274\014\264<\276\0221!=\004v\017\273\033\352\362\274\346)\310=;\034\326<[\302\256\275\363\032\201=\351\034\330\275\360\027>\275\315\027\311=\352\361*\275g\270n\275z\371\320\274\272\005\231=\"$\226=R\0358=#\207o<T\232`\274C\374\226\275\225A\002=n\352\035\275.\031\361\2754\027\215\275\034\014@=VWG\2749\351\270=\220\313\363\274~\227\306=`\243\221<\320\334\210\275\026&\021>\2704\317=\0350Y=%+1={P\221\275`\023Q=\343\275\255;\306\2011=q\0107\2758B\361<\026#\342;C)z=\r\310<:\305\330_\275\266\274`=\033\273G\275>\314\201\275%\367\306\274r8\304\275UZ\032<8\331\255=%)+=\\u\313=\212\215\246\275\236y\301\275\303\257\356;:*$\275<\263\222\275\263\211\221=\256\320\277;\275k\n\275oD\216=\253@\227<G\220\331\267V\344\234<r\245[=!\327l\2750\354\214<\252\306~\273\312\357\377\275\341\201\263\275F\t\032\275\021e]\275\242\205\355\274\355\213\035\275)\211\234\275\277\345\303;E\204:\275 \033v\275\353\216\035=\000\312\271=\010j\245<\3312$=c\251\352<\335\200\202\274<D#\275)\306\264=\376X\370<\325\333\307\274_\347\302\274w\365\264<=P\236\275\271\347A=\017\310\217\274\313Q\305\274\\$\213\275\035\346:<\020m<\275f\254\265\275\376\206\027=\325\000\304<a\311\022\275\346\202\0367\351\354+\275\320I\314\274\372>\006\275.,};\332\266\023\273$\322\237\274\207$\320=\240ID9<\317\276\275\277\233\362=\244\0019\275CC\302=\367\344\364<x\253P=\230\226\226\275v\274/>\006q\033>\356\265\332\274\351E\025\275\232\243\241<;R\200=7J\221=\036\241\020\274\024\263:>\367\366#\275k\257\344=d\004\366=\217\3444<\205<\310\274\354\375\377\273\352\343%=\244dD=\204\265\201=\222\304\242<j\265\306\273\026\232\256<\247\264\206\275\344\343\236\273\214\203Y=\0072\301\275po\034\275\225\343\304\272\323\322\203=\251U\224=\237G\354\275+\204\363\272r\261{\274/\373\260=\321\233j;e\277\304=\007\010\210=\032\321\253<\276J\232<\331\255:=\373\217\202=1\022\357\273?\376\017<Tg\202=\354\200\270\274b\242\262\275\326\035\271=\227iT\275\014\235\313\275Yr\035<z\275&=\025T\027\274\274\"\261=\214\276\223=\rrW<b|\231=\311\034\367<\024g\215=S\264\274\274\224B\235=\355\200\366\273\357;\255\273\325U\213\275\330\302\006\274\002\345\250=\n\021\035=\3315\"\275\311\017\003>\t-2\275\303b&=N)\251=\027\202\203<\t\245\221<\376\353\030<\301E\321\274\260\276!\275\312\321\212=}\270\371=\266\360\277=S}\364\274\327yb=)fR\275\273]\225\275\374\254\377<D\004\255\274\226\217\237<u\017Q=A\272\376\275\266e~\275\031q\267\275D\343\310\275\250vD=d\322\000\275r,\267\274\r\363\\\274\0101\013\275\225\325\217\274\t@i=\201\330J=}\356\240\275\222\234z=p7\004=\345}\265<7~\232=[\201\274=\2175\006<Pah;s\367\250\274O\020d=+!/;\361\322\235=\223\344\264\274\t\366*>\213\304\337<a\252\220=\003\\\242\275\206\304$<kB\252\275!\300j\275\336\263\253<\222a\274\275\220\2500<Ka#=>\365)<\335\342\351\275W\304g\273M\370\205\275:\367\313\275\251V\251=LH\004\273s\346\003=`\224e\275\02037\275;\314\236\273\024\254\226\275O\036\315<\315\347\313=Y\330\356\274\324+\027<\265\340#\275W\360\236=\324\301\233<\251\360,=j\277\223\273,6\256\2756\373\260\274\317\334v\275A\242A=#x\376<\311\342w=\312D\242<l\345\202\275\235\262n\275\tx=\275dDa=~\2628\274\360\310\211=\014\352\311<\364\261\221=p\212^=\302\277\036<\300u\365\271r\375\306=;\252\020\273dV\215<\333\022s\274\336o\200\274\237\1776\275\265\330\272;\324\370M\273\036\030j=\242\035\006\274P\233$\274C\301#\274\347\226\236<\325\031\245=PD\307\273m\251v=hI\342=\t\253\247<g$W\275=$\237\275\220\246\305\275\333\237\304=4\3047=\243P\200\275e~n\272/B\374=k\345I\273\223h3\275\315\370\202=\360\241\201<\355\347\216<\340\271\213=\344\255\336<\357\020\246\275\374\000\362\275\n\247\252\275\323S\t\274.\n\022=\367BW\275\342c\017<\271\347\270\275\020\246\244\275P7\255=Fv\223=\233\301\"\275\377\373\377\274l\271\303<\216y\003=\232,@\275X\005\n\276X\n\007=\022\261\032\274g\025\222\275\356\005|=\361<\233=\317\035\201=\264\222\247=\331\321\305<\tE\207=\027i\020\276r>\257<\316\360\203\275\031\035\373\275\301\nx={ZJ\274\247u\344=uP7\276\253\254\217\274W\352\221=t\034.=~\270P=\340\025\004\275e\355\206\275\372\261\252=\204\366\225\275Sw\377<\035\014\257:\300I\"=7\017\206\275\251\356\205<?\007\204=i\353\252\274\277}Q=,\204\252=\325\002\245;\3708\034\273C\312\333\275\000\324N=\027\226\200=\343\264\226=\274K\274=\306A\326\275\341zA>\027\351\244\273\263\327\n\275\315\277\251=^\036\'=\201\201\\;l\375\213=Y\356,<\034\256V=C\262\262\275m\005`=\367Mo\275\322\200\325\274p.\277<\002\216}\275B\236\314<\302Rf<\320.\245=\370\341Z\275\242M\225\275\345@\254=\333\333\235\275RV\244\273H&E=\234\036.\274\343A\237=\206\214\352=N\304\232\274\005\004\r\275\301\364\377\274\206\rU<\217\275\204<\021\026\277<\326\020L\275 \300\245\274\357\264\327<\271\324\232\275\246\254X<\210\374B<xc\"\275\200\"\330;\220/@=I\243;\275~\210\016\276\362P\243<X\017\013\275t\227&=\236t\224=U\245\253=*\032\213<\263\023\205\275*\265\360;Dy\364<V\320u\2739d.\275\234/[<\221\214\304\274\311\3077\275O\375\217=\351\352\343\274\377O\344=\r\360\377<3%%=\352e\013>\316\234a\275\3118\357\275\326\242\350\274=~\"\276\202+\033>\261\271\234=\037\360E=\211m\274=\014\317\\<\203Wb\274\234c\223\274[\352M\275t\313\002\275\265#\032=\334,,\275\233\212\2238\233\213\266\274n\256\025\275\350\325\237=\2275\254\275#c\010>!\341\336;\310=\346\275\023\311\214\274\373\023\356=Q\336\221\274<\202\023=F-\275;Z\215\274=\026\302C<O\377\213\274\360\272\317<\007\266\221<\213\217\227\275\016\013\245=v\207\214\274\324\225&\275Y\263\351=\307\320\364=@x%\274O\212\025\275\264)\263=\361t\210\275w\3625<\210@k<\310\363\372\273J\257X<\034\220u\275\371\020T\275\374>\200\274%\217\362\274\3121\305\273\021\303-\275\265\024\232=\370\310\275=\020AR=L\343\242=\242\346\220=\024-b=~Q\231;\250j\301=-\224$\275\271\202\r=*\365\023\275M\024\226=\002\370\030\276\256\361\227\274\320\341\001=\344Dz\275\257\335C\275\024\240\262=F\233\311=\322\313\031\275\245\207Z\274\207\316\336\274\325\274\276\2759\202\205=B!\301\274\317ad=\343l\223\275\220\221?\275\315x\001\274`\007\235\272\251\330\014<r\322\335<\000\233\272\274\322FI<\234\021Q<\244\351\304\273r\255\230=\305\245\236\272\351\356\030\276\377\302\031\275XlQ<\263K\270\275J\200\271\275%\031_<i\033[=\377C_=\364B\223;\247e\256=4\032n\275\246#\322\275\324\315\247:\322\021\014\275\243\325}\275\364\'\000\275u&\307\275\331,\262<\0006\376\274\272\214\241\275\271\314\n=\026\227\227<\240\372\310=)=\215=\240\035\356<;\360\224\275\355\\N\275b[\264\275\r\230{\274\335=i\273\312yX\274\326h\332\275\317\205U<\212\035\235:V\321A\274\0256\002\275\3563\007>\213\242\006<}+\237\275\322\330\264=\222\226\027\276cE\305\2752\005\214<\261\371\264\275Z\311\313\273\177\340\261=\026NO=|\306T;\201K\315\274\341\256\363\274z,r=,/;;\014\017\024=\311\354\327=\037\0142\275\351!u\275\276\032q\2755\002t\275\315\n\r\275\037\\f<\267l\r\275\324\374\300=\3226\025=\261V\243=/\321\365=\242\375c\275\010]\031=FxQ\275.\332\373\275\rO\206\275\007\261\000\275\027af\275>\245\343;\341\354\276\275\024q\211\275\367\230\t>\025?\017;\372\030\263\275,\177\245=o\347\004=\367\223e\274\245\210z<\020D\302\275/9-\275\375D\031\276\275\232\014=\"\351\243\274\023z\271\275\356R\027=\037\177\334<\210\334\273\275\022G\202=d\217V\275\333Mm=!z[\2744{ \2758\352\211=\'\313\027<7P\367<(\376J=\215ym\275l\341\320\274w\234\227\275\003\211\241<x\2145=\207\265c\274\3627\234=D\336\315=\223\335\207=\323\261D\275\344D\026\275A\321(\275\302$\226<\364|G<\332Y\273\275\213\225\033\275\330\304\262=8\366\314<\330J@\275\347\242\016<\241\263\253<\370o\'=+\026\342=\205]\237=M\235\207=g?\323\273Z\005.\275/\345\242\274\343f\006>\3765\215\275\267\210\003=,\247\363=\260f\215\274\233\212\211\275\304\t\250=\364\0018=\276\302s=\277z\251\275\354\205\326\274\343\2456\275\262H\331=b\242M\275C\341\203\275t\247^=\351DA<\017#\200;J\020\2659\366\314\032<\232D\244\274?/\016\274HX\326<\034\336\010=\005\243\247\274\344Dj=\275\n\322:\263%a\275\337T\n\275\217fr=\276\375#>\317\205\214<\024\244\023>\246\357\365;\233j\241\274\024\177\205=\320$\361<qt\024\275\261\216?;0\014\266<\317\244\263\275\375\272\344;\363\270X\275Z\352\257\275\343\262g\275T\266^=\317F\223=\224s3=8~#\275oY\332\275\331\237p=\201\266\'=\375Lj\274w\353&\276e\2047=\352\036~\275\357>\361\275fRI\275\304\032\t<X\204B=>\301\204=xq\300<\343\376\277\274_\353\010\274\223\177\026\275\202\000\352\273\226m\246=)K\365<\024\315q=q|]\275me\246\274\202C\302\274\372b\313\274\215dH;\017\361,\275\300#\232=\203\203|\274y\316Y\275\202\311\335\272\271NS>\247r\016>\351\344I\275[#\230=\373\361\266=\377\232\231\275\037\272\r\275\214\321\371\275}cs\2753\305i=E\240\371\273=\3747\275\301LH<\254y!\274\346_s\275\353\014\263=\025\307Q=\276\255H=\010.\273\2755D;\275\016>\017=\363.\017\275\210\372\027=6\326v:\263\240\207\275@$\234\275K}\273\274\035\360\260=4Y\256=5O\014>\367\324\010>\212\216\245<n;\367<\244\362\000\274y\321\002=}\232\252=\206\311\026\274\252\344b\275\361\261\335<\271\263`\274\016\303\251\275\231\021\206\274Y\332F\275\030\337\331<\341?\210\275|\300\337\275\377\315!=\357\244;=\324<%\275\374\231\251=\344\236^\275\3228Y\273y\322 